{"vocab_size": 30257, "special_vocab": {"<|endoftext|>": 0}, "vocab": {"\u0000": 1, "\u0001": 2, "\u0002": 3, "\u0003": 4, "\u0004": 5, "\u0005": 6, "\u0006": 7, "\u0007": 8, "\b": 9, "\t": 10, "\n": 11, "\u000b": 12, "\f": 13, "\r": 14, "\u000e": 15, "\u000f": 16, "\u0010": 17, "\u0011": 18, "\u0012": 19, "\u0013": 20, "\u0014": 21, "\u0015": 22, "\u0016": 23, "\u0017": 24, "\u0018": 25, "\u0019": 26, "\u001a": 27, "\u001b": 28, "\u001c": 29, "\u001d": 30, "\u001e": 31, "\u001f": 32, " ": 33, "!": 34, "\"": 35, "#": 36, "$": 37, "%": 38, "&": 39, "'": 40, "(": 41, ")": 42, "*": 43, "+": 44, ",": 45, "-": 46, ".": 47, "/": 48, "0": 49, "1": 50, "2": 51, "3": 52, "4": 53, "5": 54, "6": 55, "7": 56, "8": 57, "9": 58, ":": 59, ";": 60, "<": 61, "=": 62, ">": 63, "?": 64, "@": 65, "A": 66, "B": 67, "C": 68, "D": 69, "E": 70, "F": 71, "G": 72, "H": 73, "I": 74, "J": 75, "K": 76, "L": 77, "M": 78, "N": 79, "O": 80, "P": 81, "Q": 82, "R": 83, "S": 84, "T": 85, "U": 86, "V": 87, "W": 88, "X": 89, "Y": 90, "Z": 91, "[": 92, "\\": 93, "]": 94, "^": 95, "_": 96, "`": 97, "a": 98, "b": 99, "c": 100, "d": 101, "e": 102, "f": 103, "g": 104, "h": 105, "i": 106, "j": 107, "k": 108, "l": 109, "m": 110, "n": 111, "o": 112, "p": 113, "q": 114, "r": 115, "s": 116, "t": 117, "u": 118, "v": 119, "w": 120, "x": 121, "y": 122, "z": 123, "{": 124, "|": 125, "}": 126, "~": 127, "\u007f": 128, "\\x80": 129, "\\x81": 130, "\\x82": 131, "\\x83": 132, "\\x84": 133, "\\x85": 134, "\\x86": 135, "\\x87": 136, "\\x88": 137, "\\x89": 138, "\\x8a": 139, "\\x8b": 140, "\\x8c": 141, "\\x8d": 142, "\\x8e": 143, "\\x8f": 144, "\\x90": 145, "\\x91": 146, "\\x92": 147, "\\x93": 148, "\\x94": 149, "\\x95": 150, "\\x96": 151, "\\x97": 152, "\\x98": 153, "\\x99": 154, "\\x9a": 155, "\\x9b": 156, "\\x9c": 157, "\\x9d": 158, "\\x9e": 159, "\\x9f": 160, "\\xa0": 161, "\\xa1": 162, "\\xa2": 163, "\\xa3": 164, "\\xa4": 165, "\\xa5": 166, "\\xa6": 167, "\\xa7": 168, "\\xa8": 169, "\\xa9": 170, "\\xaa": 171, "\\xab": 172, "\\xac": 173, "\\xad": 174, "\\xae": 175, "\\xaf": 176, "\\xb0": 177, "\\xb1": 178, "\\xb2": 179, "\\xb3": 180, "\\xb4": 181, "\\xb5": 182, "\\xb6": 183, "\\xb7": 184, "\\xb8": 185, "\\xb9": 186, "\\xba": 187, "\\xbb": 188, "\\xbc": 189, "\\xbd": 190, "\\xbe": 191, "\\xbf": 192, "\\xc0": 193, "\\xc1": 194, "\\xc2": 195, "\\xc3": 196, "\\xc4": 197, "\\xc5": 198, "\\xc6": 199, "\\xc7": 200, "\\xc8": 201, "\\xc9": 202, "\\xca": 203, "\\xcb": 204, "\\xcc": 205, "\\xcd": 206, "\\xce": 207, "\\xcf": 208, "\\xd0": 209, "\\xd1": 210, "\\xd2": 211, "\\xd3": 212, "\\xd4": 213, "\\xd5": 214, "\\xd6": 215, "\\xd7": 216, "\\xd8": 217, "\\xd9": 218, "\\xda": 219, "\\xdb": 220, "\\xdc": 221, "\\xdd": 222, "\\xde": 223, "\\xdf": 224, "\\xe0": 225, "\\xe1": 226, "\\xe2": 227, "\\xe3": 228, "\\xe4": 229, "\\xe5": 230, "\\xe6": 231, "\\xe7": 232, "\\xe8": 233, "\\xe9": 234, "\\xea": 235, "\\xeb": 236, "\\xec": 237, "\\xed": 238, "\\xee": 239, "\\xef": 240, "\\xf0": 241, "\\xf1": 242, "\\xf2": 243, "\\xf3": 244, "\\xf4": 245, "\\xf5": 246, "\\xf6": 247, "\\xf7": 248, "\\xf8": 249, "\\xf9": 250, "\\xfa": 251, "\\xfb": 252, "\\xfc": 253, "\\xfd": 254, "\\xfe": 255, "\\xff": 256, "<|endoftext|>": 0, "he": 257, "an": 258, "the": 259, "ed": 260, "to": 261, "re": 262, "and": 263, "in": 264, "as": 265, "it": 266, "ou": 267, "ar": 268, "ay": 269, "pl": 270, "ha": 271, "er": 272, "en": 273, "le": 274, "The": 275, "is": 276, "om": 277, "ing": 278, "th": 279, "al": 280, "on": 281, "st": 282, "was": 283, "id": 284, "sa": 285, "im": 286, "lo": 287, "ri": 288, "s.": 289, "ir": 290, "e.": 291, "pp": 292, "am": 293, "il": 294, "at": 295, "or": 296, "et": 297, "ne": 298, "be": 299, "y.": 300, "ge": 301, "ok": 302, "end": 303, "ld": 304, "li": 305, "nd": 306, "fri": 307, "ot": 308, "ked": 309, "ve": 310, "se": 311, "we": 312, "ant": 313, "e,": 314, "id,": 315, "ther": 316, "ver": 317, "un": 318, "ig": 319, "They": 320, "He": 321, "fr": 322, "ck": 323, "ly": 324, "ow": 325, "sh": 326, "ut": 327, "itt": 328, "es": 329, "play": 330, "la": 331, "gh": 332, "d.": 333, "sm": 334, "all": 335, "de": 336, "og": 337, "up": 338, "ch": 339, "ro": 340, "ds": 341, "ma": 342, "ke": 343, "ca": 344, "ed.": 345, "bo": 346, "ce": 347, "'s": 348, "Tim": 349, "day": 350, "!\"": 351, "happ": 352, "pe": 353, "te": 354, "her": 355, ".\"": 356, "wit": 357, "with": 358, "el": 359, "ted": 360, "oo": 361, "his": 362, "r.": 363, "hat": 364, "ic": 365, "ra": 366, "so": 367, "tim": 368, "She": 369, "lp": 370, "you": 371, "mo": 372, "ved": 373, "ome": 374, "ul": 375, "big": 376, "On": 377, "ta": 378, "very": 379, "co": 380, "ur": 381, "pr": 382, "ea": 383, "ry": 384, "s,": 385, "friend": 386, "ll": 387, "ht": 388, "ug": 389, "me": 390, "ba": 391, "sc": 392, "na": 393, "?\"": 394, "ent": 395, "Lil": 396, "gr": 397, "not": 398, "t.": 399, "cou": 400, "they": 401, "had": 402, "of": 403, "toge": 404, "ag": 405, "ts": 406, "ec": 407, "said,": 408, "want": 409, "ho": 410, "ad": 411, "ev": 412, "for": 413, "tl": 414, "py": 415, "day,": 416, "thing": 417, "hed": 418, "'t": 419, "ex": 420, "ac": 421, "wa": 422, "do": 423, "y,": 424, "mom": 425, "tr": 426, "ter": 427, "she": 428, "my": 429, "Tom": 430, "that": 431, "saw": 432, "ound": 433, "One": 434, "lit": 435, "fe": 436, "bir": 437, "no": 438, "fo": 439, "ittle": 440, "n,": 441, "little": 442, "tre": 443, "ci": 444, "fu": 445, "ab": 446, "out": 447, "op": 448, "sp": 449, "br": 450, "us": 451, "au": 452, "nam": 453, "pi": 454, "Su": 455, "um": 456, "ed,": 457, "tt": 458, "d,": 459, "It": 460, "there": 461, "cl": 462, "ned": 463, "but": 464, "g.": 465, "named": 466, "Lily": 467, "some": 468, "dd": 469, "su": 470, "any": 471, "wan": 472, "were": 473, "way": 474, "k.": 475, "l.": 476, "ga": 477, "wanted": 478, "one": 479, "go": 480, "ti": 481, "ain": 482, "star": 483, "par": 484, "if": 485, "re.": 486, "ame": 487, "som": 488, "sto": 489, "ct": 490, "nt": 491, "wou": 492, "si": 493, "did": 494, "ap": 495, "er.": 496, "ov": 497, "went": 498, "help": 499, "ind": 500, "tu": 501, "Once": 502, "look": 503, "ep": 504, "po": 505, "whe": 506, "sk": 507, "qu": 508, "hou": 509, "cat": 510, "upon": 511, "ss": 512, "che": 513, "fun": 514, "mi": 515, "time,": 516, "hi": 517, "toy": 518, "happy": 519, "Sp": 520, "pre": 521, "can": 522, "rt": 523, "n.": 524, "car": 525, "iv": 526, "m.": 527, "pa": 528, "\"T": 529, "ank": 530, "said": 531, "ght": 532, "thou": 533, "sw": 534, "ing.": 535, "av": 536, "ard": 537, "low": 538, "could": 539, "are": 540, "ethe": 541, "bec": 542, "uc": 543, "ayed": 544, "\"Y": 545, "ol": 546, "together": 547, ",\"": 548, "bird": 549, "ty": 550, "iled": 551, "kn": 552, "mu": 553, "ous": 554, "ill": 555, "too": 556, "new": 557, "bu": 558, "ble": 559, "fi": 560, "dog": 561, "gir": 562, "him": 563, "\"W": 564, "ru": 565, "wor": 566, "rs": 567, "bb": 568, "wat": 569, "ak": 570, "ie": 571, "gi": 572, "their": 573, "mb": 574, "ny": 575, "ful": 576, "hin": 577, "ball": 578, "ide": 579, "ins": 580, "bl": 581, "care": 582, "art": 583, "say": 584, "But": 585, "\\xe2\\x80": 586, "ened": 587, "ft": 588, "ax": 589, "it.": 590, "ang": 591, "lear": 592, "wal": 593, "king": 594, "played": 595, "fou": 596, "com": 597, "ju": 598, "\"L": 599, "af": 600, "fl": 601, "girl": 602, "use": 603, "cit": 604, "cr": 605, "em": 606, "pu": 607, "ends": 608, "ared": 609, "ure": 610, "fa": 611, "di": 612, "xc": 613, "le.": 614, "have": 615, "Max": 616, "es,": 617, "fel": 618, "h.": 619, "n't": 620, "Ben": 621, "ni": 622, "found": 623, "loved": 624, "aw": 625, "Sam": 626, "looked": 627, "n'": 628, "rn": 629, "boy": 630, "lf": 631, "ran": 632, "bea": 633, "ood": 634, "ik": 635, "back": 636, "every": 637, "t,": 638, "led": 639, "ple": 640, "wo": 641, "\"I": 642, "pped": 643, "cid": 644, "other": 645, "nex": 646, "gs": 647, "ue": 648, "p.": 649, "dy": 650, "gre": 651, "ers": 652, "ng": 653, "ly,": 654, "hom": 655, "r,": 656, "rou": 657, "ped": 658, "friends": 659, "ong": 660, "oun": 661, "would": 662, "Mom": 663, "Sue": 664, "cu": 665, "oug": 666, "liked": 667, "by": 668, "beca": 669, "ff": 670, "them": 671, "rp": 672, "dow": 673, "happy.": 674, "rien": 675, "felt": 676, "like": 677, "tri": 678, "in.": 679, "ref": 680, "red": 681, "ends.": 682, "An": 683, "asked": 684, "friends.": 685, "ob": 686, "str": 687, "sur": 688, "ore": 689, "mp": 690, "started": 691, "man": 692, "see": 693, "ia": 694, "res": 695, "laug": 696, "oud": 697, "ise": 698, "dr": 699, "make": 700, "ing,": 701, "sor": 702, "cre": 703, "good": 704, "sun": 705, "sl": 706, "ide.": 707, "outs": 708, "small": 709, "fas": 710, "g,": 711, "ud": 712, "lk": 713, "ns": 714, "came": 715, "ys": 716, "en.": 717, "ist": 718, "xp": 719, "pec": 720, "uck": 721, "ings": 722, "more": 723, "pic": 724, "se.": 725, "Fr": 726, "put": 727, "jo": 728, "ged": 729, "Spot": 730, "ised": 731, "ee": 732, "dre": 733, "spe": 734, "ish": 735, "wh": 736, "ite": 737, "sha": 738, "away": 739, "ate": 740, "ase": 741, "od": 742, "clo": 743, "lu": 744, "get": 745, "han": 746, "from": 747, "something": 748, "thought": 749, "what": 750, "arn": 751, "hel": 752, "find": 753, "on.": 754, "ayin": 755, "tow": 756, "made": 757, "ks": 758, "rest": 759, "gg": 760, "So": 761, "on,": 762, "got": 763, "ily": 764, "fam": 765, "jum": 766, "rea": 767, "Th": 768, "don": 769, "dan": 770, "ye": 771, "box": 772, "ls": 773, "hug": 774, "a.": 775, "let": 776, "ck.": 777, "Mia": 778, "ther.": 779, "bet": 780, "ter.": 781, "o.": 782, "again": 783, "e!": 784, "lor": 785, "l,": 786, "day.": 787, "You": 788, "ris": 789, "ren": 790, "ui": 791, "et's": 792, "Af": 793, "than": 794, "fin": 795, "took": 796, "y!": 797, "rel": 798, "ym": 799, "bed": 800, "your": 801, "sad": 802, "room": 803, "ink": 804, "pris": 805, "sti": 806, "will": 807, "per": 808, "imp": 809, "arou": 810, "around": 811, "ret": 812, "id.": 813, "tty": 814, "es.": 815, "sn": 816, "hen": 817, "ber": 818, "iz": 819, "mou": 820, "lived": 821, "oc": 822, "ened.": 823, "together.": 824, "ile": 825, "our": 826, "ch.": 827, "cial": 828, "den": 829, "ast": 830, "sed": 831, "gu": 832, "when": 833, "cam": 834, "hu": 835, "smiled": 836, "\"Th": 837, "er,": 838, "ery": 839, "cle": 840, "playing": 841, "scar": 842, "arm": 843, "wer": 844, "ten": 845, "et.": 846, "ghe": 847, "ered": 848, "know": 849, "pt": 850, "ort": 851, "said.": 852, "als": 853, "anim": 854, "k,": 855, "enly": 856, "tur": 857, "Luc": 858, "wi": 859, "iny": 860, "ion": 861, "rd": 862, "here": 863, "une": 864, "os": 865, "da": 866, "fly": 867, "\"D": 868, "vo": 869, "ph": 870, "ey": 871, "erf": 872, "e.\"": 873, "ould": 874, "bri": 875, "who": 876, "Ev": 877, "tree": 878, "ight": 879, "many": 880, "flo": 881, "lau": 882, "f.": 883, "ook": 884, "eo": 885, "dis": 886, "tried": 887, "der": 888, "\"C": 889, "tc": 890, "anc": 891, "ip": 892, "pla": 893, "mag": 894, "about": 895, "az": 896, "ger": 897, "\"M": 898, "wr": 899, "ally": 900, "end,": 901, "anymo": 902, "ay.": 903, "unex": 904, "bi": 905, "dden": 906, "pected": 907, "hap": 908, "knew": 909, "fun.": 910, "Tim.": 911, "sid": 912, "flow": 913, "sq": 914, "ited": 915, "ser": 916, "bal": 917, "und": 918, "dv": 919, "kit": 920, "tal": 921, "eat": 922, "ays": 923, "best": 924, "lon": 925, "ly.": 926, "ani": 927, "ting": 928, "ry,": 929, "And": 930, "tree.": 931, "excit": 932, "peo": 933, "learned": 934, "les": 935, "became": 936, "park.": 937, "ways": 938, "tor": 939, "lea": 940, "yt": 941, "In": 942, "lw": 943, "show": 944, "Lucy": 945, "ided": 946, "always": 947, "decid": 948, "this": 949, "decided": 950, "run": 951, "ning": 952, "because": 953, "Ja": 954, "st.": 955, "too.": 956, "hand": 957, "into": 958, "ree": 959, "big,": 960, "Let": 961, "squ": 962, "Fin": 963, "s!": 964, "smil": 965, "\"O": 966, "har": 967, "ine": 968, "both": 969, "ick": 970, "llo": 971, "\"He": 972, "vent": 973, "sad.": 974, "s.\"": 975, "gan": 976, "til": 977, "hig": 978, "ark": 979, "time": 980, "gl": 981, "ara": 982, "down": 983, "re,": 984, "ry.": 985, "aut": 986, "ow,": 987, "feel": 988, "ear": 989, "yw": 990, "iful": 991, "beaut": 992, "When": 993, "won": 994, "ldn": 995, "again.": 996, "imb": 997, "\"S": 998, "ass": 999, "int": 1000, "\"H": 1001, "ve.": 1002, "friend,": 1003, "wn": 1004, "own": 1005, "told": 1006, "tw": 1007, "To": 1008, "Every": 1009, "ice": 1010, "ai": 1011, "ild": 1012, "one.": 1013, "ask": 1014, "its": 1015, "old": 1016, "oy": 1017, "or.": 1018, "house": 1019, "mon": 1020, "reme": 1021, "ef": 1022, "His": 1023, "him.": 1024, "ving": 1025, "hur": 1026, "surpr": 1027, "ar.": 1028, "gard": 1029, "vi": 1030, "gave": 1031, "\\x80\\x9d": 1032, "rm": 1033, "ed!": 1034, "Bo": 1035, "tle": 1036, "how": 1037, "\"Yes,": 1038, "yar": 1039, "rr": 1040, "Anna": 1041, "each": 1042, "din": 1043, "things": 1044, "careful": 1045, "dl": 1046, "need": 1047, "etim": 1048, "al.": 1049, "eas": 1050, "ki": 1051, "Bob": 1052, "fle": 1053, "'m": 1054, "now": 1055, "under": 1056, "laughed": 1057, "We": 1058, "blo": 1059, "ised.": 1060, "ay,": 1061, "p,": 1062, "cks": 1063, "As": 1064, "opl": 1065, "om.": 1066, "yon": 1067, "So,": 1068, "tan": 1069, "zz": 1070, "mis": 1071, "take": 1072, "ke.": 1073, "ron": 1074, "mom.": 1075, "toys": 1076, "dad": 1077, "t'": 1078, "park": 1079, "bit": 1080, "yo": 1081, "ati": 1082, "kes": 1083, "stand": 1084, "them.": 1085, "bre": 1086, "tou": 1087, "ched": 1088, "nc": 1089, "stu": 1090, "sle": 1091, "hy": 1092, "near": 1093, "mor": 1094, "book": 1095, "cha": 1096, "end.": 1097, "tra": 1098, "w.": 1099, "away.": 1100, "walked": 1101, "her.": 1102, "an.": 1103, "ash": 1104, "con": 1105, "tin": 1106, "ball.": 1107, "Lily.": 1108, "rk": 1109, "fere": 1110, "dif": 1111, "win": 1112, "ane": 1113, "ess": 1114, "cc": 1115, "nn": 1116, "pas": 1117, "ued": 1118, "ers.": 1119, "ves": 1120, "rf": 1121, "list": 1122, "you,": 1123, "med": 1124, "gar": 1125, "just": 1126, "ial": 1127, "ce.": 1128, "never": 1129, "Then,": 1130, "Her": 1131, "real": 1132, "bug": 1133, "bar": 1134, "o,": 1135, "\"N": 1136, "saf": 1137, "Sara": 1138, "pen": 1139, "ze": 1140, "bra": 1141, "idn": 1142, "\".": 1143, "idea": 1144, "ced": 1145, "didn't": 1146, "From": 1147, "try": 1148, "le,": 1149, "whi": 1150, "ub": 1151, "ise.": 1152, "read": 1153, "bun": 1154, "long": 1155, "mar": 1156, "expl": 1157, "Amy": 1158, "hed.": 1159, "min": 1160, "x.": 1161, "heard": 1162, "ded": 1163, "Jo": 1164, "cri": 1165, "yel": 1166, "nice": 1167, "ow.": 1168, "wind": 1169, "scared": 1170, "where": 1171, "pretty": 1172, "then,": 1173, "war": 1174, "wis": 1175, "rem": 1176, "gra": 1177, "fav": 1178, "hun": 1179, "irre": 1180, "iou": 1181, "th.": 1182, "then": 1183, "Bu": 1184, "je": 1185, "rock": 1186, "fish": 1187, "r!": 1188, "y.\"": 1189, "sand": 1190, "kin": 1191, "\"Thank": 1192, "inc": 1193, "flew": 1194, "bear": 1195, "fis": 1196, "edi": 1197, "special": 1198, "ground": 1199, "love": 1200, "kid": 1201, "app": 1202, "lots": 1203, "on't": 1204, "over": 1205, "yed": 1206, "home.": 1207, "Gr": 1208, "pon": 1209, "zed": 1210, "even": 1211, "home": 1212, "sou": 1213, "Tim's": 1214, "ps": 1215, "y's": 1216, "ever": 1217, "come": 1218, "ppen": 1219, "Da": 1220, "dra": 1221, "ton": 1222, "happened.": 1223, "e?": 1224, "io": 1225, "kind": 1226, "h,": 1227, "don't": 1228, "ele": 1229, "ster": 1230, "eg": 1231, "wel": 1232, "ffy": 1233, "Flu": 1234, "outside": 1235, "rew": 1236, "\u201d": 1237, "ust": 1238, "excited": 1239, "room.": 1240, "ice.": 1241, "cted": 1242, "lis": 1243, "ent.": 1244, "hn": 1245, "ld.": 1246, "Tom.": 1247, "arr": 1248, "water": 1249, "fol": 1250, "orite": 1251, "much": 1252, "inal": 1253, "ong.": 1254, "at.": 1255, "ot.": 1256, "house.": 1257, "says.": 1258, "far": 1259, "hes": 1260, "Be": 1261, "i,": 1262, "irrel": 1263, "dir": 1264, "it,": 1265, "eded": 1266, "xpe": 1267, "'re": 1268, "\"You": 1269, "dn": 1270, "se,": 1271, "ous.": 1272, "deli": 1273, "picked": 1274, "orn": 1275, "cket": 1276, "ano": 1277, "pul": 1278, "oke": 1279, "Sal": 1280, "hea": 1281, "ther,": 1282, "du": 1283, "mm": 1284, "cla": 1285, "ds.": 1286, "play.": 1287, "ied": 1288, "self": 1289, "share": 1290, "anymore.": 1291, "call": 1292, "oi": 1293, "befo": 1294, "colo": 1295, "lie": 1296, "ture": 1297, "ared.": 1298, "thanked": 1299, "give": 1300, "sel": 1301, "beh": 1302, "unexpected": 1303, "llo,": 1304, "\u201c": 1305, "\\x99s": 1306, "idea.": 1307, "gon": 1308, "repl": 1309, "cook": 1310, "Kitt": 1311, "xt": 1312, "gam": 1313, "y'": 1314, "clean": 1315, "tir": 1316, "magic": 1317, "cy": 1318, "still": 1319, "ty.": 1320, "Sudd": 1321, "help.": 1322, "entu": 1323, "ary": 1324, "opened": 1325, "tas": 1326, "bird.": 1327, "wing": 1328, "scared.": 1329, "hugged": 1330, "fru": 1331, "\"P": 1332, "ner": 1333, "ide,": 1334, "should": 1335, "thr": 1336, "ars": 1337, "lou": 1338, "\"Let's": 1339, "hat's": 1340, "my.": 1341, "andma": 1342, "bot": 1343, "ried": 1344, "owed": 1345, "off": 1346, "met": 1347, "Fl": 1348, "sho": 1349, "set": 1350, "ily.": 1351, "box.": 1352, "foo": 1353, "blue": 1354, "\"G": 1355, "uti": 1356, "lot": 1357, "lc": 1358, "loud": 1359, "frog": 1360, "sit": 1361, "bor": 1362, "yum": 1363, "dri": 1364, "ib": 1365, "friend.": 1366, "rin": 1367, "ined": 1368, "ons": 1369, "enjo": 1370, "proud": 1371, "great": 1372, "forest": 1373, "ddenly,": 1374, "wed": 1375, "st,": 1376, "fir": 1377, "bow": 1378, "aybe": 1379, "less": 1380, "prom": 1381, "butter": 1382, "gry.": 1383, "ste": 1384, "hr": 1385, "until": 1386, "las": 1387, "tend": 1388, "org": 1389, "animals": 1390, "clim": 1391, "shiny": 1392, "After": 1393, "rain": 1394, "iced": 1395, "por": 1396, "aring": 1397, "\"B": 1398, "Lo": 1399, "hav": 1400, "Wh": 1401, "ling": 1402, "jumped": 1403, "up.": 1404, "table": 1405, "people": 1406, "nd.": 1407, "utif": 1408, "stre": 1409, "ally,": 1410, "beautiful": 1411, "hid": 1412, "mat": 1413, "next": 1414, "gen": 1415, "rabb": 1416, "yu": 1417, "d!": 1418, "Suddenly,": 1419, "showed": 1420, "helped": 1421, "agre": 1422, "ferent": 1423, "inside": 1424, "oken": 1425, "surpris": 1426, "sna": 1427, "cks.": 1428, "swe": 1429, "ple.": 1430, "At": 1431, "ugh": 1432, "air": 1433, "cas": 1434, "vin": 1435, "toys.": 1436, "high": 1437, "being": 1438, "fast": 1439, "keep": 1440, "things.": 1441, "en,": 1442, "pet": 1443, "cor": 1444, "il.": 1445, "shin": 1446, "plan": 1447, "sing": 1448, "ground.": 1449, "ough": 1450, "It's": 1451, "t!": 1452, "\"No,": 1453, "orr": 1454, "ond": 1455, "called": 1456, "able": 1457, "pain": 1458, "\\x80\\x99": 1459, "bbed": 1460, "eb": 1461, "olo": 1462, "xi": 1463, "ua": 1464, "inn": 1465, "bad": 1466, "isy": 1467, "top": 1468, "shou": 1469, "happily": 1470, "truck": 1471, "curi": 1472, "als.": 1473, "doll": 1474, "rc": 1475, "\"Can": 1476, "key": 1477, "ker": 1478, "nig": 1479, "m,": 1480, "sis": 1481, "laugh": 1482, "ato": 1483, "cra": 1484, "zy": 1485, "ful.": 1486, "ace": 1487, "\\x80\\x9c": 1488, "dog.": 1489, "pap": 1490, "nu": 1491, "bou": 1492, "jump": 1493, "spl": 1494, "water.": 1495, "ge.": 1496, "story": 1497, "ras": 1498, "open": 1499, "lat": 1500, "thes": 1501, "ven": 1502, "also": 1503, "ive": 1504, "ny.": 1505, "am.": 1506, "wl": 1507, "hurt": 1508, "says,": 1509, "Em": 1510, "boat": 1511, "two": 1512, "hard": 1513, "lli": 1514, "sy": 1515, "les.": 1516, "lan": 1517, "ach": 1518, "lar": 1519, "food": 1520, "gether": 1521, "ms": 1522, "pro": 1523, "rat": 1524, "dro": 1525, "ies": 1526, "color": 1527, "cked": 1528, "Let's": 1529, "mbered": 1530, "Sally": 1531, "better": 1532, "door": 1533, "sat": 1534, "cake": 1535, "b.": 1536, "you.": 1537, "inside.": 1538, "toy.": 1539, "db": 1540, "watch": 1541, "ual": 1542, "ek": 1543, "Ch": 1544, "smiled.": 1545, "lowed": 1546, "Can": 1547, "sky.": 1548, "eld": 1549, "rec": 1550, "soft": 1551, "Don": 1552, "oki": 1553, "Jack": 1554, "ace.": 1555, "used": 1556, "fig": 1557, "nodd": 1558, "wait": 1559, "smi": 1560, "outside.": 1561, "ird": 1562, "Do": 1563, "kept": 1564, "eh": 1565, "sta": 1566, "has": 1567, "ves.": 1568, "other.": 1569, "car.": 1570, "uit": 1571, "sig": 1572, "cau": 1573, "\"Ok": 1574, "couldn't": 1575, "k!": 1576, "Re": 1577, "hair": 1578, "cut": 1579, "stopped": 1580, "whis": 1581, "Som": 1582, "va": 1583, "wag": 1584, "chen.": 1585, "\\x99t": 1586, "sil": 1587, "ant.": 1588, "import": 1589, "fell": 1590, "smel": 1591, "Kitty": 1592, "ez": 1593, "chil": 1594, "row": 1595, "oin": 1596, "dm": 1597, "friends,": 1598, "ime": 1599, "lost": 1600, "ries": 1601, "pot": 1602, "green": 1603, "thin": 1604, "bas": 1605, "place": 1606, "having": 1607, "flower": 1608, "\"Look": 1609, "Dad": 1610, "cand": 1611, "thing.": 1612, "everyone": 1613, "do.": 1614, "back.": 1615, "bye": 1616, "ece": 1617, "bro": 1618, "fix": 1619, "ght.": 1620, "rand": 1621, "Sue.": 1622, "cat.": 1623, "strong": 1624, "ei": 1625, "rot": 1626, "ass.": 1627, "ois": 1628, "Lu": 1629, "ere": 1630, "ool": 1631, "sch": 1632, "tom": 1633, "adv": 1634, "a,": 1635, "erst": 1636, "\"We": 1637, "thy": 1638, "vil": 1639, "lt": 1640, "ck,": 1641, "sorry": 1642, "que": 1643, "gn": 1644, "you.\"": 1645, "time.": 1646, "looking": 1647, "kids": 1648, "warm": 1649, "asked.": 1650, "land": 1651, "yummy": 1652, "plo": 1653, "ized": 1654, "sound": 1655, "pur": 1656, "catch": 1657, "loon": 1658, "s?": 1659, "let's": 1660, "atc": 1661, "ver.": 1662, "ect": 1663, "ans": 1664, "in,": 1665, "inv": 1666, "climb": 1667, "tant": 1668, "pow": 1669, "long.": 1670, "sunny": 1671, "smile": 1672, "l!": 1673, "bran": 1674, "down.": 1675, "asked,": 1676, "quir": 1677, "orit": 1678, "col": 1679, "cho": 1680, "uri": 1681, "ange": 1682, "Bil": 1683, "pend": 1684, "ens": 1685, "pat": 1686, "gin": 1687, "cry": 1688, "mouse": 1689, "advent": 1690, "ure.": 1691, "igh": 1692, "going": 1693, "icy": 1694, "ces": 1695, "att": 1696, "it's": 1697, "vis": 1698, "uf": 1699, "race": 1700, "pe.": 1701, "Max.": 1702, "ished": 1703, "safe": 1704, "stick": 1705, "duck": 1706, "listen": 1707, "hear": 1708, "\"What": 1709, "ream": 1710, "\"Mom": 1711, "my,": 1712, "eri": 1713, "kl": 1714, "This": 1715, "ier": 1716, "home,": 1717, "moral": 1718, "mom,": 1719, "hon": 1720, "inte": 1721, "gent": 1722, "goo": 1723, "d.\"": 1724, "ws": 1725, "cto": 1726, "iet": 1727, "ian": 1728, "tall": 1729, "hing": 1730, "worked": 1731, "better.": 1732, "night": 1733, "making": 1734, "shared": 1735, "ied,": 1736, "ok,": 1737, "inu": 1738, "ien": 1739, "brou": 1740, "fire": 1741, "May": 1742, "after": 1743, "ated": 1744, "tty.": 1745, "omet": 1746, "ll.": 1747, "pin": 1748, "began": 1749, "inst": 1750, "brave": 1751, "lun": 1752, "omis": 1753, "funny": 1754, "ix": 1755, "y!\"": 1756, "lid": 1757, "light": 1758, "era": 1759, "thank": 1760, "sear": 1761, "\"A": 1762, "rabbit": 1763, "tell": 1764, "avor": 1765, "ddy": 1766, "while": 1767, "ited.": 1768, "oon": 1769, "Tim,": 1770, "treas": 1771, "lo,": 1772, "garden.": 1773, "oa": 1774, "stay": 1775, "favorite": 1776, "family": 1777, "est": 1778, "game": 1779, "after.": 1780, "ben": 1781, "ung": 1782, "omp": 1783, "\"Don't": 1784, "cro": 1785, "fast.": 1786, "lic": 1787, "birds": 1788, "isa": 1789, "dar": 1790, "enc": 1791, "sad,": 1792, "hor": 1793, "I'm": 1794, "lad": 1795, "watched": 1796, "hil": 1797, "squirrel": 1798, "Ju": 1799, "lem": 1800, "bunny": 1801, "pil": 1802, "contin": 1803, "learn": 1804, "ard.": 1805, "does": 1806, "eling": 1807, "ppy": 1808, "hot": 1809, "anger": 1810, "irt": 1811, "Bobo": 1812, "Sam.": 1813, "iffe": 1814, "hb": 1815, "oom": 1816, "gy": 1817, "Lily,": 1818, "Lily's": 1819, "walk": 1820, "That": 1821, "val": 1822, "ess.": 1823, "can't": 1824, "g!": 1825, "uni": 1826, "kay": 1827, "ic.": 1828, "oe": 1829, "omf": 1830, "iss": 1831, "Fluffy": 1832, "er!": 1833, "pk": 1834, "shi": 1835, "ine.": 1836, "work": 1837, "hee": 1838, "fic": 1839, "\"Hello,": 1840, "John": 1841, "raw": 1842, "tand": 1843, "!\\xe2": 1844, "surprised.": 1845, "ons.": 1846, "nf": 1847, "roll": 1848, "cal": 1849, "mean": 1850, "Tom,": 1851, "important": 1852, "mommy": 1853, "tig": 1854, "res.": 1855, "turned": 1856, "\"I'm": 1857, "tf": 1858, "feeling": 1859, "ox": 1860, "w,": 1861, "arri": 1862, "picture": 1863, "rough": 1864, "Then": 1865, "walking": 1866, "behind": 1867, "perf": 1868, "bath": 1869, "surprised": 1870, "omm": 1871, "rse": 1872, "ith": 1873, "yard.": 1874, "inb": 1875, "e,\"": 1876, "mber": 1877, "\"Hi,": 1878, "reac": 1879, "imm": 1880, "\"Why": 1881, "ire": 1882, "reed": 1883, "terf": 1884, "much.": 1885, "ppl": 1886, "yellow": 1887, "house,": 1888, "cast": 1889, "\"Look,": 1890, "ased": 1891, "fen": 1892, "ping": 1893, "ge,": 1894, "sleep": 1895, "excited.": 1896, "endl": 1897, "asu": 1898, "\"Mom,": 1899, "ushed": 1900, "cold": 1901, "all.": 1902, "sky": 1903, "et,": 1904, "rg": 1905, "son": 1906, "pping": 1907, "ray": 1908, "full": 1909, "Bl": 1910, "needed": 1911, "nder": 1912, "Spot.": 1913, "memb": 1914, "El": 1915, "together,": 1916, "cele": 1917, "d?": 1918, "Ins": 1919, "tures": 1920, "fore": 1921, "fur": 1922, "touch": 1923, "Ro": 1924, "fre": 1925, "ja": 1926, "soon": 1927, "Ple": 1928, "right": 1929, "cup": 1930, "bla": 1931, "park,": 1932, "Mr.": 1933, "All": 1934, "riou": 1935, "mail": 1936, "ky": 1937, "pop": 1938, "amil": 1939, "ler": 1940, "Ol": 1941, "imal": 1942, "ue.": 1943, "and.": 1944, "amaz": 1945, "ing!": 1946, "cream": 1947, "slow": 1948, "wb": 1949, "lv": 1950, "erp": 1951, "bright": 1952, "rev": 1953, "food.": 1954, "pick": 1955, "mus": 1956, "Ben.": 1957, "prin": 1958, "Whis": 1959, "tain": 1960, "only": 1961, "ss.": 1962, "fli": 1963, "ean": 1964, "gle": 1965, "lady": 1966, "Now,": 1967, "lion": 1968, "bs": 1969, "Tha": 1970, "inging": 1971, "chen": 1972, "it.\"": 1973, "f,": 1974, "nodded": 1975, "lif": 1976, ".\\xe2": 1977, "erou": 1978, "out.": 1979, "arc": 1980, "hole": 1981, "What": 1982, "ses": 1983, "fair": 1984, "store": 1985, "climbed": 1986, "chair": 1987, "eter": 1988, "ch,": 1989, "think": 1990, "yc": 1991, "des": 1992, "Everyone": 1993, "nic": 1994, "nau": 1995, "hold": 1996, "please": 1997, "listened": 1998, "pes": 1999, "trou": 2000, "ble.": 2001, "lep": 2002, "another": 2003, "\u2019": 2004, "reached": 2005, "Am": 2006, "nor": 2007, "Ok": 2008, "Jim": 2009, "fight": 2010, "sweet": 2011, "ie.": 2012, "bel": 2013, "\"It's": 2014, "dad.": 2015, "different": 2016, "sorry.": 2017, "noise": 2018, "ump": 2019, "pretend": 2020, "p!": 2021, "Timmy": 2022, "oud.": 2023, "must": 2024, "angry.": 2025, "lly": 2026, "anket": 2027, "arp": 2028, "dress": 2029, "happy,": 2030, "\"Wow,": 2031, "Just": 2032, "been": 2033, "o!": 2034, "pper": 2035, "zi": 2036, "pect": 2037, "pushed": 2038, "sees": 2039, "vy": 2040, "ote": 2041, "helping": 2042, "sorry,": 2043, "says": 2044, "ces.": 2045, "grow": 2046, "arb": 2047, "ligh": 2048, "cky": 2049, "Jane": 2050, "ddle": 2051, "ards": 2052, "There": 2053, "reli": 2054, "ack": 2055, "comfor": 2056, "rid": 2057, "man.": 2058, "ah": 2059, "mig": 2060, "kf": 2061, "oub": 2062, "stuck": 2063, "scared,": 2064, "erri": 2065, "wished": 2066, "ching": 2067, "ve,": 2068, "safe.": 2069, "might": 2070, "ted,": 2071, "ring": 2072, "swing": 2073, "prot": 2074, "rie": 2075, "mir": 2076, "nj": 2077, "iti": 2078, "e!\"": 2079, "spr": 2080, "emb": 2081, "up,": 2082, "gry": 2083, "sed.": 2084, "ready": 2085, "Toge": 2086, "\"R": 2087, "friendly": 2088, "e-": 2089, "swam": 2090, "vered": 2091, "sting": 2092, "buy": 2093, "table.": 2094, "farm": 2095, "pra": 2096, "dog,": 2097, "s!\"": 2098, "ul.": 2099, "Mommy": 2100, "ance": 2101, "phant": 2102, "ool.": 2103, "ham": 2104, "Mi": 2105, "laughed.": 2106, "Mo": 2107, "owl": 2108, "forest.": 2109, "garden": 2110, "glad": 2111, "looks": 2112, "t?": 2113, "ate.": 2114, "held": 2115, "quick": 2116, "lve": 2117, "e's": 2118, "olly": 2119, "loc": 2120, "build": 2121, "Lila": 2122, "mil": 2123, "me?\"": 2124, "leas": 2125, "ins.": 2126, "mach": 2127, "ama": 2128, "num": 2129, "jou": 2130, "town,": 2131, "playing,": 2132, "through": 2133, "before": 2134, "door.": 2135, "cef": 2136, "talk": 2137, "anan": 2138, "rs.": 2139, "shr": 2140, "y?": 2141, "ffy.": 2142, "slide": 2143, "flowers": 2144, "net": 2145, "move": 2146, "pli": 2147, "stea": 2148, "worry,": 2149, "heav": 2150, "ok.": 2151, "ros": 2152, "Tom's": 2153, "sau": 2154, "sli": 2155, "age": 2156, "band": 2157, "lik": 2158, "spo": 2159, "fill": 2160, "walk.": 2161, "Jen": 2162, "xed": 2163, "sometim": 2164, "ise,": 2165, "sne": 2166, "draw": 2167, "e'": 2168, "cray": 2169, "cir": 2170, "cious": 2171, "ding": 2172, "\"Su": 2173, "ples": 2174, "heal": 2175, "with.": 2176, "vel": 2177, "wha": 2178, "ce,": 2179, "derful": 2180, "running": 2181, "job": 2182, "inted": 2183, "dren": 2184, "oar": 2185, "head": 2186, "dark": 2187, "g?": 2188, "Sam,": 2189, "snow": 2190, "noise.": 2191, "family.": 2192, "ush": 2193, "Pl": 2194, "ats": 2195, "nice.": 2196, "ost": 2197, "ming": 2198, "plant": 2199, "ad.": 2200, "away,": 2201, "doc": 2202, "remembered": 2203, "eyes": 2204, "closer": 2205, "Soon,": 2206, "trying": 2207, "ked,": 2208, "zing": 2209, "brok": 2210, "ter,": 2211, "fall": 2212, "grabbed": 2213, "anch": 2214, "boun": 2215, "rious": 2216, "fly.": 2217, "ont": 2218, "gif": 2219, "tree,": 2220, "e?\"": 2221, "imes": 2222, "ril": 2223, "wet": 2224, "sure": 2225, "ment": 2226, "ppo": 2227, "hone": 2228, "round": 2229, "wise": 2230, "nes": 2231, "inde": 2232, "stayed": 2233, "stop": 2234, "hide": 2235, "swim": 2236, "tiny": 2237, "broken": 2238, "tight": 2239, "Po": 2240, "mic": 2241, "curious": 2242, "lle": 2243, "pink": 2244, "close": 2245, "why": 2246, "Whi": 2247, "gest": 2248, "waved": 2249, "forgot": 2250, "alon": 2251, "mum": 2252, "baby": 2253, "righ": 2254, "itche": 2255, "Pe": 2256, "rock.": 2257, "animals.": 2258, "While": 2259, "forta": 2260, "Ma": 2261, "there.": 2262, "it!\"": 2263, "bag": 2264, "enjoyed": 2265, "ater": 2266, "smile.": 2267, "ows": 2268, "ball,": 2269, "ing?\"": 2270, "noticed": 2271, "lec": 2272, "neck": 2273, "x,": 2274, "three": 2275, "angry": 2276, "likes": 2277, "kis": 2278, "ning,": 2279, "kitchen.": 2280, "fla": 2281, "left": 2282, "self.": 2283, "bub": 2284, "me.": 2285, "around.": 2286, "ew": 2287, "osa": 2288, "sion": 2289, "reach": 2290, "dy.": 2291, "ining": 2292, "ght,": 2293, "floor.": 2294, "Finally,": 2295, "ious": 2296, "ino": 2297, "ann": 2298, "aned": 2299, "cake.": 2300, "colorful": 2301, "inin": 2302, "sun.": 2303, "dest": 2304, "zo": 2305, "hands": 2306, "pers": 2307, "sal": 2308, "kno": 2309, "re!": 2310, "break": 2311, "err": 2312, "bus": 2313, "ar,": 2314, "seen": 2315, "h!": 2316, "Sar": 2317, "apple": 2318, "Jer": 2319, "ep.": 2320, "piece": 2321, "K,": 2322, "tea": 2323, "cool": 2324, "girl.": 2325, "clos": 2326, "pan": 2327, "surprise": 2328, "by.": 2329, "ures": 2330, "reat": 2331, "pulled": 2332, "igg": 2333, "ckly": 2334, "ider": 2335, "blew": 2336, "himse": 2337, "hill": 2338, "threw": 2339, "hopped": 2340, "wood": 2341, "yth": 2342, "bird,": 2343, "ies.": 2344, "\"Okay,": 2345, "\"This": 2346, "explore": 2347, "mal": 2348, "bed.": 2349, "hit": 2350, "pond.": 2351, "ts.": 2352, "\u2019s": 2353, "los": 2354, "ening": 2355, "coming": 2356, "sh.": 2357, "s,\"": 2358, "tun": 2359, "Un": 2360, "tele": 2361, "stood": 2362, "arf": 2363, "bby": 2364, "clapped": 2365, "followed": 2366, "you!\"": 2367, "goodbye": 2368, "bin": 2369, "dream": 2370, "?\\xe2": 2371, "Whe": 2372, "ary.": 2373, "face.": 2374, "makes": 2375, "ower": 2376, "bul": 2377, "lin": 2378, "quickly": 2379, "u'": 2380, "d'": 2381, "glo": 2382, "\"That's": 2383, "cti": 2384, "pea": 2385, "ult": 2386, "game.": 2387, "men": 2388, "okay": 2389, "Lat": 2390, "iting": 2391, "ked.": 2392, "moment": 2393, "umb": 2394, "fec": 2395, "was.": 2396, "al,": 2397, "rever": 2398, "cry.": 2399, "wra": 2400, "train": 2401, "pped.": 2402, "ers,": 2403, "fing": 2404, "shop": 2405, "ppe": 2406, "choo": 2407, "kers": 2408, "Br": 2409, "Max,": 2410, "Dog": 2411, "ait": 2412, "But,": 2413, "hands.": 2414, "turns": 2415, "om,": 2416, "ail": 2417, "Ho": 2418, "pir": 2419, "come,": 2420, "others": 2421, "cing": 2422, "Mia.": 2423, "ds,": 2424, "before.": 2425, "dance": 2426, "acro": 2427, "tired": 2428, "paper": 2429, "inar": 2430, "head.": 2431, "Bun": 2432, "ugg": 2433, "fish.": 2434, "jel": 2435, "tail": 2436, "leaf": 2437, "ular": 2438, "reg": 2439, "boy.": 2440, "age.": 2441, "villa": 2442, "black": 2443, "board": 2444, "othe": 2445, "ke,": 2446, "happen": 2447, "understand": 2448, "\"Do": 2449, "mess": 2450, "ner.": 2451, "ayon": 2452, "cis": 2453, "\"That": 2454, "\"It": 2455, "her,": 2456, "deep": 2457, "wants": 2458, "live": 2459, "wand": 2460, "mel": 2461, "ghter": 2462, "rel.": 2463, "erful": 2464, "voice": 2465, "hard.": 2466, "sug": 2467, "inis": 2468, "woo": 2469, "i.": 2470, "Mim": 2471, "ath": 2472, "Lucy.": 2473, "spot": 2474, "part": 2475, "too,": 2476, "song": 2477, "thre": 2478, "owing": 2479, "it?\"": 2480, "replied,": 2481, "!\u201d": 2482, "th,": 2483, "pri": 2484, "white": 2485, "brought": 2486, "first": 2487, "tired.": 2488, "thday": 2489, "Tommy": 2490, "ssi": 2491, "pudd": 2492, "ghty": 2493, "ow!": 2494, "eces": 2495, "secre": 2496, "sf": 2497, "pack": 2498, "cars": 2499, "name": 2500, "ashed": 2501, "tle.": 2502, "er.\"": 2503, "imag": 2504, "ation": 2505, "aid": 2506, "good.": 2507, "yes.": 2508, "colors": 2509, "mas": 2510, "mer": 2511, "animal": 2512, "really": 2513, "dered": 2514, "paint": 2515, "Sarah": 2516, "erous": 2517, "uz": 2518, "rob": 2519, "Maybe": 2520, "work.": 2521, "van": 2522, "tod": 2523, "ther.\"": 2524, "dep": 2525, "count": 2526, "xpl": 2527, "butterfly": 2528, "ze.": 2529, "happy!": 2530, "agreed": 2531, "ride": 2532, "brea": 2533, "ises": 2534, "St": 2535, "ito": 2536, "-c": 2537, "'ll": 2538, "leaves": 2539, "nin": 2540, "idge": 2541, "unk": 2542, "els": 2543, "ipp": 2544, "ries.": 2545, "teac": 2546, "ried.": 2547, "unc": 2548, "Daisy": 2549, "strong.": 2550, "pretty.": 2551, "eal": 2552, "thought,": 2553, "lder": 2554, "slide.": 2555, "answ": 2556, "Jan": 2557, "cer": 2558, "corn": 2559, "face": 2560, "irst": 2561, "waited": 2562, "lev": 2563, "bigger": 2564, "ori": 2565, "it!": 2566, "filled": 2567, "ese": 2568, "oks": 2569, "kitt": 2570, "ead": 2571, "finished": 2572, "stra": 2573, "Inside": 2574, "box,": 2575, "enth": 2576, "ias": 2577, "listen.": 2578, "bee": 2579, "n!": 2580, "\"F": 2581, "wear": 2582, "careful.": 2583, "down,": 2584, "\\x9cW": 2585, "ric": 2586, "sharing": 2587, "today": 2588, "fil": 2589, "oring": 2590, "bad.": 2591, "Mar": 2592, "realized": 2593, "pit": 2594, "most": 2595, "suc": 2596, "oran": 2597, "mone": 2598, "bur": 2599, "gh.": 2600, "de.": 2601, "Now": 2602, "ous,": 2603, "danger": 2604, "ying": 2605, "enou": 2606, "ings.": 2607, "orm": 2608, "party": 2609, "grass.": 2610, "bear.": 2611, "oli": 2612, "ucky": 2613, "plas": 2614, "kne": 2615, "where.": 2616, "tion": 2617, "flowers.": 2618, "la.": 2619, "yog": 2620, "someone": 2621, "continued": 2622, "forest,": 2623, "itting": 2624, "Ben,": 2625, "bask": 2626, "\"Oh": 2627, "dau": 2628, "ning.": 2629, "promised": 2630, "lee": 2631, "join": 2632, "leb": 2633, "town": 2634, "more.": 2635, "Buddy": 2636, "say,": 2637, "while,": 2638, "talked": 2639, "way.": 2640, "sang": 2641, "together.\"": 2642, "y,\"": 2643, "enough": 2644, "eared": 2645, "disapp": 2646, "orange": 2647, "brother": 2648, "heli": 2649, "cop": 2650, "night,": 2651, "lay": 2652, "hand.": 2653, "balloon": 2654, "sin": 2655, "Sue's": 2656, "sudd": 2657, "irpy": 2658, "danced": 2659, "ing?": 2660, "ign": 2661, "leave": 2662, "cried.": 2663, "ot,": 2664, "Yo": 2665, "thes.": 2666, "rele": 2667, "lice": 2668, "ls.": 2669, "\"Maybe": 2670, "scary": 2671, "unn": 2672, "es!": 2673, "dist": 2674, "confu": 2675, "tha": 2676, "grandma": 2677, "meas": 2678, "getting": 2679, "andw": 2680, "Billy": 2681, "fruit": 2682, "without": 2683, "broke": 2684, "shelf": 2685, "tomor": 2686, "bat": 2687, "cour": 2688, "again,": 2689, "Bel": 2690, "cat,": 2691, "ns.": 2692, "pond": 2693, "afr": 2694, "stat": 2695, "side": 2696, "ful,": 2697, "ashe": 2698, "hole.": 2699, "a'": 2700, "athe": 2701, "qui": 2702, "n\\xe2": 2703, "aghe": 2704, "wagged": 2705, "rolled": 2706, "push": 2707, "ging": 2708, "cover": 2709, "ches": 2710, "fully": 2711, "or,": 2712, "ener": 2713, "pes.": 2714, "dec": 2715, "pull": 2716, "beli": 2717, "ase,": 2718, "pati": 2719, "ent,": 2720, "me.\"": 2721, "iver": 2722, "mes": 2723, "sage": 2724, "moved": 2725, "irth": 2726, "uli": 2727, "Joe": 2728, "eat.": 2729, "him,": 2730, "oca": 2731, "hill.": 2732, "fox": 2733, "cow": 2734, "omy": 2735, "ina": 2736, "ssed": 2737, "impre": 2738, "lm": 2739, "you?\"": 2740, "ictu": 2741, "living": 2742, "ert": 2743, "-a": 2744, "myster": 2745, "woods.": 2746, "lot.": 2747, "ull": 2748, "pictures": 2749, "coun": 2750, "ity": 2751, "-up": 2752, "fie": 2753, "hug.": 2754, "help,": 2755, "hungry.": 2756, "stri": 2757, "shout": 2758, "princ": 2759, "adventure": 2760, "ilt": 2761, "wall": 2762, "room,": 2763, "flower.": 2764, "party.": 2765, "mix": 2766, "wish": 2767, "treat": 2768, "small,": 2769, "follow": 2770, "Bob.": 2771, "trees": 2772, "mother": 2773, "ern": 2774, "dw": 2775, "sitting": 2776, "aer": 2777, "irp": 2778, "ari": 2779, "ish.": 2780, "dres": 2781, "ses.": 2782, "monster": 2783, "tail.": 2784, "ther!\"": 2785, "ded.": 2786, "fac": 2787, "quiet": 2788, "spin": 2789, "organ": 2790, "ient": 2791, "nap": 2792, "eth": 2793, "runs": 2794, "r?": 2795, "erly": 2796, "\"The": 2797, "flying": 2798, "icul": 2799, "Mom.": 2800, "lov": 2801, "Thank": 2802, "hli": 2803, "toys,": 2804, "kitchen": 2805, "ballo": 2806, "book.": 2807, "note": 2808, "Al": 2809, "zy.": 2810, "thi": 2811, "scis": 2812, "hurt.": 2813, "dle": 2814, "card": 2815, "nut": 2816, "okay,": 2817, "caught": 2818, "butto": 2819, "nest": 2820, "low.": 2821, "purple": 2822, "years": 2823, "cloud": 2824, "place.": 2825, "phone": 2826, "lici": 2827, "Emma": 2828, "Mum": 2829, "go.": 2830, "scre": 2831, "pig": 2832, "be.": 2833, "hum": 2834, "anything": 2835, "ase.": 2836, "Tim!": 2837, "lect": 2838, "flu": 2839, "gone.": 2840, "smar": 2841, "asle": 2842, "incr": 2843, "music": 2844, "pal": 2845, "oil": 2846, "cher": 2847, "oge": 2848, "neig": 2849, "sca": 2850, "sive": 2851, "ir.": 2852, "lease": 2853, "nst": 2854, "together!\"": 2855, "ou'": 2856, "others.": 2857, "t.\"": 2858, "brown": 2859, "iling": 2860, "played,": 2861, "special.": 2862, "belie": 2863, "fear": 2864, "paren": 2865, "grand": 2866, "\"But": 2867, "oup": 2868, "teddy": 2869, "chu": 2870, "cur": 2871, "allo": 2872, "plac": 2873, "lock": 2874, "everything": 2875, "bug.": 2876, "perfect": 2877, "hed,": 2878, "one,": 2879, "iry": 2880, "blocks": 2881, "foot": 2882, "lish": 2883, "ing!\"": 2884, "No": 2885, "hisk": 2886, "herse": 2887, "\\x9cT": 2888, "lding": 2889, "cried": 2890, "anx": 2891, "rac": 2892, "terri": 2893, "closed": 2894, "wore": 2895, "Sue,": 2896, "rh": 2897, "urou": 2898, "ya": 2899, "dirty": 2900, "hoped": 2901, "erm": 2902, "parents": 2903, "fun,": 2904, "year": 2905, "colors.": 2906, "tent": 2907, "thinks": 2908, "mess.": 2909, "prett": 2910, "le!": 2911, "eds": 2912, "a!": 2913, "grass": 2914, "able.": 2915, "veget": 2916, "Amy.": 2917, "town.": 2918, "nts": 2919, "isg": 2920, "sent": 2921, "ets": 2922, "me,": 2923, "pou": 2924, "at,": 2925, "hoo": 2926, "ose": 2927, "ering": 2928, "ture.": 2929, "world": 2930, "nit": 2931, "bles": 2932, "turn": 2933, "walked,": 2934, "Lun": 2935, "remember": 2936, "jog": 2937, "hes.": 2938, "feren": 2939, "resting": 2940, "Bir": 2941, "iny.": 2942, "nodded.": 2943, "woke": 2944, "crab": 2945, "isi": 2946, "\"Tim,": 2947, "vou": 2948, "heavy": 2949, "amp": 2950, "talking": 2951, "sold": 2952, "eating": 2953, "dropped": 2954, "re.\"": 2955, "esca": 2956, "tn": 2957, "visit": 2958, "teach": 2959, "rit": 2960, "moun": 2961, "window": 2962, "mov": 2963, "Their": 2964, "rent": 2965, "tro": 2966, "ups": 2967, "za": 2968, "hat.": 2969, "ador": 2970, "usi": 2971, "ompl": 2972, "tb": 2973, "fit": 2974, "sometimes": 2975, "pf": 2976, "stal": 2977, "\"Hi": 2978, "shad": 2979, "creat": 2980, "ive.": 2981, "back,": 2982, "cket.": 2983, "tid": 2984, "Mimi": 2985, "test": 2986, "frag": 2987, "Grandma": 2988, "slo": 2989, "urn": 2990, "led.": 2991, "free": 2992, "race.": 2993, "isc": 2994, "playing.": 2995, "bigg": 2996, "oh": 2997, "erc": 2998, "thd": 2999, "ave": 3000, "smoo": 3001, "asse": 3002, "ord": 3003, "hd": 3004, "Together,": 3005, "sign": 3006, "ero": 3007, "stone": 3008, "rep": 3009, "eng": 3010, "an,": 3011, "start": 3012, "bring": 3013, "Du": 3014, "boat.": 3015, "shook": 3016, "cheer": 3017, "smart": 3018, "stret": 3019, "nat": 3020, "late.": 3021, "puzz": 3022, "may": 3023, "blem.": 3024, "bottle": 3025, "jok": 3026, "tau": 3027, "tower": 3028, "alli": 3029, "La": 3030, "leg": 3031, "appl": 3032, "brave.": 3033, "form": 3034, "ay!": 3035, "add": 3036, "dic": 3037, "tak": 3038, "erv": 3039, "bon": 3040, "carefully": 3041, "lig": 3042, "to.": 3043, "truck.": 3044, "Sor": 3045, "seem": 3046, "hungry": 3047, "ue,": 3048, "ible": 3049, "unus": 3050, "now.": 3051, "high.": 3052, "\\x9cY": 3053, "Molly": 3054, "icro": 3055, "meet": 3056, "voice.": 3057, "eyes.": 3058, "mf": 3059, "ated.": 3060, "frustr": 3061, "Fred": 3062, "zle": 3063, "sail": 3064, "tomo": 3065, "expen": 3066, "mc": 3067, "touc": 3068, "mit": 3069, "sof": 3070, "doing": 3071, "peb": 3072, "drink": 3073, "store.": 3074, "touched": 3075, "een": 3076, "jar": 3077, "silly": 3078, "mouth": 3079, "few": 3080, "\"You're": 3081, "first,": 3082, "-o": 3083, "eed": 3084, "fright": 3085, "same": 3086, "vit": 3087, "c.": 3088, "stir": 3089, "stran": 3090, "grate": 3091, "ork": 3092, "lla": 3093, "pty": 3094, "clothes": 3095, "finally": 3096, "tic": 3097, "dry": 3098, "grew": 3099, "leaves.": 3100, "r'": 3101, "ical": 3102, "sai": 3103, "happened": 3104, "chin": 3105, "yard": 3106, "feels": 3107, "rain.": 3108, "sco": 3109, "laugh.": 3110, "tori": 3111, "sound.": 3112, "blocks.": 3113, "alone.": 3114, "farmer": 3115, "me!\"": 3116, "robe": 3117, "\"Good": 3118, "tab": 3119, "secret": 3120, "spark": 3121, "sea.": 3122, "lpf": 3123, "Pi": 3124, "bite": 3125, "epy": 3126, "?\u201d": 3127, "children": 3128, "dragon": 3129, "yal": 3130, "wea": 3131, "letter": 3132, "fea": 3133, "amb": 3134, "right.": 3135, "od.": 3136, "d's": 3137, "urous": 3138, "scream": 3139, "carry": 3140, "weal": 3141, "ore.": 3142, "y-": 3143, "er!\"": 3144, "fairy": 3145, "poin": 3146, "ye.": 3147, "oth": 3148, "towards": 3149, "believe": 3150, "games": 3151, "n\\xe2\\x80": 3152, "ladd": 3153, "amed": 3154, "curious.": 3155, "bike": 3156, "carrot": 3157, "ize": 3158, "bird's": 3159, "arrived": 3160, "holding": 3161, "shiny.": 3162, "wonderful": 3163, "bye.": 3164, "rich": 3165, "mush": 3166, "delicious": 3167, "sty": 3168, "tasty": 3169, "that's": 3170, "people.": 3171, "key.": 3172, "anymore": 3173, "env": 3174, "ye,": 3175, "edible": 3176, "young": 3177, "wm": 3178, "asha": 3179, "thers": 3180, "nt.": 3181, "snake": 3182, "asks.": 3183, "dish": 3184, "trees.": 3185, "adventure.": 3186, "elephant": 3187, "lesson": 3188, "codi": 3189, "y?\"": 3190, "bowl": 3191, "move.": 3192, "f!": 3193, "wol": 3194, "Spot,": 3195, "throw": 3196, "ais": 3197, "Jill": 3198, "wrong.": 3199, "there,": 3200, "fer": 3201, "blank": 3202, "toy,": 3203, "monkey": 3204, "board.": 3205, "ps.": 3206, "coco": 3207, "soon.": 3208, "ms.": 3209, "hero": 3210, "sup": 3211, "ice,": 3212, "omfor": 3213, "ny,": 3214, "rb": 3215, "lesson.": 3216, "eli": 3217, "ouds": 3218, "ward": 3219, "lean": 3220, "Mia's": 3221, "assed": 3222, "embarr": 3223, "barked": 3224, "oot": 3225, "lone": 3226, "liz": 3227, "ete": 3228, "compl": 3229, "lothe": 3230, "river": 3231, "motor": 3232, "cle.": 3233, "rv": 3234, "assed.": 3235, "anut": 3236, "tor.": 3237, "doctor": 3238, "gentle": 3239, "ended": 3240, "grat": 3241, "\"Tom,": 3242, "rag": 3243, "strange": 3244, "somet": 3245, "ange.": 3246, "na.": 3247, "ens.": 3248, "chick": 3249, "everywhere": 3250, "Blue": 3251, "erce": 3252, "questi": 3253, "chan": 3254, "zoom": 3255, "done": 3256, "lite": 3257, "irr": 3258, "astic": 3259, "hw": 3260, "pum": 3261, "stum": 3262, "bled": 3263, "himself.": 3264, "wings": 3265, "stubb": 3266, "coo": 3267, "shell": 3268, "m!": 3269, "nta": 3270, "Mark": 3271, "uch": 3272, "air.": 3273, "mid": 3274, "ong,": 3275, "ly!": 3276, "cap": 3277, "taking": 3278, "cil": 3279, "ots": 3280, "arre": 3281, "b,": 3282, "el.": 3283, "castle": 3284, "alth": 3285, "Remy": 3286, "in.\"": 3287, "gig": 3288, "ant,": 3289, "kind.": 3290, "um.": 3291, "ship": 3292, "cookies": 3293, "window.": 3294, "not.": 3295, "clum": 3296, "kids.": 3297, "blanket": 3298, "gone": 3299, "mark": 3300, "thro": 3301, "Bella": 3302, "ski": 3303, "ade": 3304, "ghing": 3305, "vide": 3306, "cold.": 3307, "myst": 3308, "squee": 3309, "Anna.": 3310, "erg": 3311, "hir": 3312, "ty,": 3313, "done,": 3314, "ersto": 3315, "ital": 3316, "ely.": 3317, "forget": 3318, "fun!\"": 3319, "sy.": 3320, "ted.": 3321, "hiding": 3322, "Lisa": 3323, "heer": 3324, "Go": 3325, "ouse": 3326, "mouth.": 3327, "too!\"": 3328, "ws.": 3329, "around,": 3330, "Some": 3331, "lol": 3332, "amazing": 3333, "\"Lil": 3334, "Come": 3335, "wall.": 3336, "birth": 3337, "ache": 3338, "share.": 3339, "berry": 3340, "ures.": 3341, "them,": 3342, "books": 3343, "king.": 3344, "proud.": 3345, "plor": 3346, "enjoy": 3347, "succ": 3348, "essful": 3349, "cking": 3350, "thu": 3351, "belong": 3352, "plan.": 3353, "onf": 3354, "Wed": 3355, "ld,": 3356, "wasn": 3357, "anding": 3358, "isy.": 3359, "miser": 3360, "ation.": 3361, "umpy": 3362, "idg": 3363, "wich": 3364, "song.": 3365, "dg": 3366, "button": 3367, "owman": 3368, "squirre": 3369, "mom's": 3370, "upp": 3371, "takes": 3372, "stick.": 3373, "magical": 3374, "no,": 3375, "'t.": 3376, "\"Of": 3377, "laughing": 3378, "gas": 3379, "bow.": 3380, "lemon": 3381, "driver": 3382, "shar": 3383, "lage": 3384, "bell": 3385, "ating": 3386, "urpr": 3387, "d!\"": 3388, "I'": 3389, "gray": 3390, "nv": 3391, "dolp": 3392, "ats.": 3393, "cannot": 3394, "bik": 3395, "wild": 3396, "bag.": 3397, "storm": 3398, "tel": 3399, "With": 3400, "sea": 3401, "please?\"": 3402, "harm": 3403, "eti": 3404, "hak": 3405, "huge": 3406, "ouse.": 3407, "eared.": 3408, "Sh": 3409, "oco": 3410, "diffic": 3411, "flash": 3412, "us.": 3413, "loo": 3414, "else": 3415, "himself": 3416, "drove": 3417, "sharp": 3418, "etit": 3419, "elly": 3420, "pped,": 3421, "zin": 3422, "etimes": 3423, "urb": 3424, "ing.\"": 3425, "fed": 3426, "exp": 3427, "basket": 3428, "nel": 3429, "came.": 3430, "ice-": 3431, "colate": 3432, "ants": 3433, "on!": 3434, "wy": 3435, "decor": 3436, "Later,": 3437, "field": 3438, "floor": 3439, "friend.\"": 3440, "Le": 3441, "ance.": 3442, "rhin": 3443, "ae": 3444, "hugs": 3445, "ordin": 3446, "though": 3447, "oter": 3448, "Why": 3449, "ow!\"": 3450, "out,": 3451, "ite.": 3452, "compet": 3453, "soup": 3454, "boar": 3455, "ney": 3456, "jour": 3457, "ney.": 3458, "ed.\"": 3459, "chased": 3460, "orri": 3461, "lonely": 3462, "tru": 3463, "lolli": 3464, "\"OK,": 3465, "boss": 3466, "ugly": 3467, "paper.": 3468, "step": 3469, "compas": 3470, "too.\"": 3471, "ster.": 3472, "Bet": 3473, "tit": 3474, "forever.": 3475, "gri": 3476, "slowly": 3477, "heart": 3478, "onat": 3479, "splash": 3480, "orry,": 3481, "ines": 3482, "My": 3483, "pile": 3484, "hope": 3485, "Zo": 3486, "okay.": 3487, "stepped": 3488, "owner": 3489, "Whiskers": 3490, "\"Lily,": 3491, "cin": 3492, "won't": 3493, "wled": 3494, "disgu": 3495, "n-": 3496, "pun": 3497, "robot": 3498, "sec": 3499, "\"Wel": 3500, "entur": 3501, "bing": 3502, "neigh": 3503, "kite": 3504, "sted": 3505, "urt": 3506, "l?": 3507, "faster": 3508, "quar": 3509, "cate": 3510, "\"Be": 3511, "treasure": 3512, "turtle": 3513, "mista": 3514, "refri": 3515, "doll.": 3516, "straw": 3517, "ppy.": 3518, "landed": 3519, "ches.": 3520, "sister": 3521, "is.": 3522, "rop": 3523, "ban": 3524, "ginal": 3525, "led,": 3526, "reed.": 3527, "well.": 3528, "velo": 3529, "agreed,": 3530, "am,": 3531, "inat": 3532, "itar": 3533, "het": 3534, "Sn": 3535, "careful,": 3536, "clean.": 3537, "across": 3538, "cream.": 3539, "Mama": 3540, "wom": 3541, "o?": 3542, "Ann": 3543, "frog.": 3544, "ass,": 3545, "hidden": 3546, "fold": 3547, "well": 3548, "dirty.": 3549, "wash": 3550, "ness": 3551, "own.": 3552, "bought": 3553, "es!\"": 3554, "Max's": 3555, "ay?": 3556, "orat": 3557, "happin": 3558, "Ted": 3559, "and-": 3560, "ending": 3561, "wasn't": 3562, "\\x9cL": 3563, "ket": 3564, "shouted": 3565, "ck!\"": 3566, "ror": 3567, "its.": 3568, "dc": 3569, "dang": 3570, "ck!": 3571, "ash.": 3572, "busy": 3573, "amon": 3574, "wic": 3575, "teacher": 3576, "missed": 3577, "cco": 3578, "re!\"": 3579, "ddy.": 3580, "gift": 3581, "lb": 3582, "Leo": 3583, "sad?\"": 3584, "egg": 3585, "arl": 3586, "nest.": 3587, "peace": 3588, "beha": 3589, "ishe": 3590, "fy": 3591, "banan": 3592, "as.": 3593, "shy": 3594, "Lucy's": 3595, "comes": 3596, "hang": 3597, "e\"": 3598, "car,": 3599, "rocks": 3600, "on.\"": 3601, "save": 3602, "castle.": 3603, "spicy": 3604, "ars.": 3605, "cute": 3606, "covered": 3607, "oke.": 3608, "wave": 3609, "Tu": 3610, "naughty": 3611, "alk": 3612, "uil": 3613, "days": 3614, "puppy": 3615, "fun!": 3616, "welcome,": 3617, "fanc": 3618, "thers.": 3619, "ally.": 3620, "supp": 3621, "oks.": 3622, "birds.": 3623, "drew": 3624, "Cat": 3625, "Sun": 3626, "everyone.": 3627, "ar-": 3628, "warm.": 3629, "cken": 3630, "edy": 3631, "weet": 3632, "cars.": 3633, "rig": 3634, "roc": 3635, "smiles": 3636, "helpl": 3637, "could.": 3638, "ett": 3639, "attra": 3640, "ained": 3641, "agreed.": 3642, "promise": 3643, "..": 3644, "seemed": 3645, "cli": 3646, "coura": 3647, "rod": 3648, "etle": 3649, "gives": 3650, "Ge": 3651, "sometimes,": 3652, "and,": 3653, "dge": 3654, "opp": 3655, "tie": 3656, "whole": 3657, "finish": 3658, "irl": 3659, "sing.": 3660, "pieces": 3661, "ceful": 3662, "coat": 3663, "morning,": 3664, "\"Sure,": 3665, "first.": 3666, "dinner.": 3667, "ar!": 3668, "ffy,": 3669, "rella": 3670, "Sam's": 3671, "vous": 3672, "thered": 3673, "higher": 3674, "bitt": 3675, "ot's": 3676, "rope": 3677, "s?\"": 3678, "bed,": 3679, "bwe": 3680, "celebr": 3681, "libr": 3682, "gru": 3683, "Sus": 3684, "hosp": 3685, "plane": 3686, "oper": 3687, "pizz": 3688, "giant": 3689, "cheered": 3690, "If": 3691, "helpful": 3692, "zzy": 3693, "jeal": 3694, "world.": 3695, "cage": 3696, "s:": 3697, "maybe": 3698, "le.\"": 3699, "dren.": 3700, "dress.": 3701, "fast,": 3702, "drive": 3703, "geon": 3704, "ion.": 3705, "road.": 3706, "irc": 3707, "scat": 3708, "worried": 3709, "leop": 3710, "ogni": 3711, "books.": 3712, "berries": 3713, "bucket": 3714, "lack": 3715, "wide": 3716, "such": 3717, "illar": 3718, "caterp": 3719, "That's": 3720, "Daddy": 3721, "rela": 3722, "Cl": 3723, "Spot's": 3724, "number": 3725, "ple,": 3726, "ma.": 3727, "accid": 3728, "andc": 3729, "teas": 3730, "lls": 3731, "glow": 3732, "rainbow": 3733, "toma": 3734, "uir": 3735, "ead.": 3736, "night.": 3737, "cauli": 3738, "taste": 3739, "w!": 3740, "try.": 3741, "that?\"": 3742, "patient": 3743, "grumpy": 3744, "ne.": 3745, "ck.\"": 3746, "ad,": 3747, "farm.": 3748, "words": 3749, "lucky": 3750, "Mary": 3751, "branch.": 3752, "smelled": 3753, "mud": 3754, "veh": 3755, "uto": 3756, "puts": 3757, "shir": 3758, "ogg": 3759, "play,": 3760, "shining": 3761, "sleep.": 3762, "dp": 3763, "inse": 3764, "kitten": 3765, "cus": 3766, "circle": 3767, "itc": 3768, "rug": 3769, "onto": 3770, "Mil": 3771, "lift": 3772, "clow": 3773, "ors": 3774, "unf": 3775, "ke!": 3776, "topp": 3777, "watching": 3778, "swimm": 3779, "zoo": 3780, "atch": 3781, "coin": 3782, "ute": 3783, "hop": 3784, "smiled,": 3785, "atta": 3786, "cticed": 3787, "light.": 3788, "exam": 3789, "river.": 3790, "s'": 3791, "ldi": 3792, "ored": 3793, "lip": 3794, "lyf": 3795, "rest.": 3796, "ered.": 3797, "tee": 3798, "cep": 3799, "toi": 3800, "saved": 3801, "ink.": 3802, "shoes": 3803, "oing": 3804, "erl": 3805, "sour": 3806, "dig": 3807, "garden,": 3808, "hello": 3809, "ckle": 3810, "wondered": 3811, "ever.": 3812, "danc": 3813, "sack": 3814, "said:": 3815, "t!\"": 3816, "giv": 3817, "branch": 3818, "ed?": 3819, "uin": 3820, "top.": 3821, "Jimmy": 3822, "log": 3823, "dad,": 3824, "id:": 3825, "sors": 3826, "assi": 3827, "mouse.": 3828, "write": 3829, "sounds": 3830, "ell": 3831, "veg": 3832, "tain.": 3833, "Gi": 3834, "surprise.": 3835, "Kit": 3836, "child": 3837, "pointed": 3838, "thy.": 3839, "small.": 3840, "asp": 3841, "kick": 3842, "lex": 3843, "horse": 3844, "too?\"": 3845, "fancy": 3846, "itu": 3847, "phone.": 3848, "ered,": 3849, "spap": 3850, "brush": 3851, "stair": 3852, "\"Hey,": 3853, "way,": 3854, "ement": 3855, "slid": 3856, "le!\"": 3857, "dance.": 3858, "front": 3859, "onar": 3860, "ply": 3861, "Wha": 3862, "vering": 3863, "forgive": 3864, "job,": 3865, "friends.\"": 3866, "money": 3867, "and?": 3868, "did.": 3869, "foun": 3870, "wet.": 3871, "glas": 3872, "ily,": 3873, "shouted.": 3874, "TV": 3875, "cen": 3876, "pretended": 3877, "Tw": 3878, "smiles.": 3879, "rre": 3880, "'d": 3881, "lose": 3882, "trum": 3883, "anything.": 3884, "spider": 3885, "fus": 3886, "cush": 3887, "hair.": 3888, "andy": 3889, "Mu": 3890, "intelli": 3891, "ect.": 3892, "ayg": 3893, "know.": 3894, "bil": 3895, "fan": 3896, "eta": 3897, "worried.": 3898, "change": 3899, "unlo": 3900, "cks,": 3901, "mitt": 3902, "else.": 3903, "ssive": 3904, "Sally.": 3905, "faster.": 3906, "beach": 3907, "beach.": 3908, "clear": 3909, "ized.": 3910, "washer": 3911, "proble": 3912, "anda": 3913, "kele": 3914, "otb": 3915, "Bes": 3916, "sie": 3917, "Chirpy": 3918, "fort": 3919, "talk.": 3920, "\"E": 3921, "oked": 3922, "mbar": 3923, "spoon": 3924, "bles.": 3925, "\"Come": 3926, "clothes.": 3927, "mosqu": 3928, "sheep": 3929, "clever": 3930, "Li": 3931, "balls": 3932, "rend": 3933, "puddle": 3934, "tm": 3935, "ets.": 3936, "crying.": 3937, "cloth": 3938, "Fluffy.": 3939, "pleas": 3940, "alu": 3941, "iq": 3942, "trees,": 3943, "sub": 3944, "seed": 3945, "Momo": 3946, "tti": 3947, "new.": 3948, "gun": 3949, "rib": 3950, "fake": 3951, "tory": 3952, "in!": 3953, "Dan": 3954, "stup": 3955, "\"J": 3956, "tem": 3957, "splashed": 3958, "know,": 3959, "ul,": 3960, "loud.": 3961, "andpa": 3962, "Ru": 3963, "off.": 3964, "large": 3965, "cel": 3966, "yummy.": 3967, "comfortable": 3968, "Kitty.": 3969, "aur": 3970, "ult.": 3971, "body": 3972, "iser": 3973, "cleaned": 3974, "dark.": 3975, "joy": 3976, "oce": 3977, "apples": 3978, "chair.": 3979, "mine": 3980, "\",": 3981, "mob": 3982, "erab": 3983, "lost.": 3984, "outside,": 3985, "goes": 3986, "snowman": 3987, "broken.": 3988, "OK": 3989, "fest": 3990, "angle": 3991, "ict": 3992, "ocer": 3993, "candy": 3994, "course,": 3995, "ged.": 3996, "wearing": 3997, "yg": 3998, "jump,": 3999, "Luna": 4000, "that.": 4001, "rein": 4002, "pieces.": 4003, "lovely": 4004, "talk!": 4005, "shes": 4006, "pillow": 4007, "wee": 4008, "Ollie": 4009, "singing": 4010, "mea": 4011, "shouted,": 4012, "aged": 4013, "tries": 4014, "spaghe": 4015, "\"My": 4016, "\\x9cI": 4017, "alone": 4018, "maga": 4019, "orn.": 4020, "tight.": 4021, "?\".": 4022, "my!": 4023, "li.": 4024, "sd": 4025, "grab": 4026, "cheese": 4027, "ured": 4028, "\u201cLet": 4029, "resc": 4030, "trust": 4031, "longer": 4032, "school.": 4033, "seat": 4034, "illy.": 4035, "princess": 4036, "these": 4037, "chen,": 4038, "vac": 4039, "nothing": 4040, "lim": 4041, "Tim!\"": 4042, "field.": 4043, "bill": 4044, "fixed": 4045, "oz": 4046, "wonder": 4047, "oas": 4048, "ife": 4049, "urned": 4050, "ve!": 4051, "dy,": 4052, "separ": 4053, "drank": 4054, "matter": 4055, "games.": 4056, "ese.": 4057, "mad": 4058, "Bear": 4059, "s-": 4060, "witch": 4061, "veryw": 4062, "come.": 4063, "lake.": 4064, "x-": 4065, "carried": 4066, "everywhere.": 4067, "Don't": 4068, "smelly": 4069, "whistle": 4070, "l'": 4071, ",\\xe2": 4072, "pay": 4073, "working": 4074, "waiting": 4075, "ver,": 4076, "eager": 4077, "ake": 4078, "dinner": 4079, "smooth": 4080, "swing.": 4081, "en!": 4082, "fire.": 4083, "Co": 4084, "arg": 4085, "again.\"": 4086, "bye,": 4087, "scare": 4088, "ence": 4089, "tly": 4090, "shapes": 4091, "ley": 4092, "cano": 4093, "vol": 4094, "furry": 4095, "vest": 4096, "something.": 4097, "ce!": 4098, "rw": 4099, "cause": 4100, "dangerous": 4101, "pe,": 4102, "home.\"": 4103, "over.": 4104, "tool": 4105, "-y": 4106, "herself.": 4107, "ums": 4108, "micro": 4109, "gy.": 4110, "medic": 4111, "juice": 4112, "wolf": 4113, "respect": 4114, "pendent": 4115, "cof": 4116, "icked": 4117, "enn": 4118, "bread": 4119, "!\\xe2\\x80": 4120, "lpl": 4121, "asing": 4122, "alan": 4123, "isted": 4124, "ana": 4125, "Amy's": 4126, "del": 4127, "soap": 4128, "coll": 4129, "protect": 4130, "street.": 4131, "lace": 4132, "powerful": 4133, "ott": 4134, "ince": 4135, "vet": 4136, "dom": 4137, "gust": 4138, "Me": 4139, "oking": 4140, "alle": 4141, "onst": 4142, "nose": 4143, "wheel": 4144, "er?": 4145, "eras": 4146, "ands": 4147, "store,": 4148, "!\".": 4149, "pres": 4150, "\"Help": 4151, "ter.\"": 4152, "that,": 4153, "grateful": 4154, "ignor": 4155, "Ben's": 4156, "big.": 4157, "Pa": 4158, "water,": 4159, "jelly": 4160, "ents": 4161, "cce": 4162, "moon": 4163, "How": 4164, "in!\"": 4165, "pair": 4166, "sand.": 4167, "illy": 4168, "ch!\"": 4169, "mpl": 4170, "heavy.": 4171, "irit": 4172, "\u201cI": 4173, "moment.": 4174, "roy": 4175, "sionate": 4176, "crying": 4177, "\"Please": 4178, "shelf.": 4179, "bald": 4180, "daddy": 4181, "obedi": 4182, "chang": 4183, "stop.": 4184, "celet": 4185, "flowers,": 4186, "grown": 4187, "kan": 4188, "ckbo": 4189, "dirt": 4190, "disa": 4191, "doing?\"": 4192, "bone": 4193, "ate,": 4194, "ie,": 4195, "jewel": 4196, "woman": 4197, "flexi": 4198, "dbo": 4199, "cookie": 4200, "string": 4201, "apple.": 4202, "refu": 4203, "strat": 4204, "det": 4205, "Tru": 4206, "waff": 4207, "d-": 4208, "no.": 4209, "fat": 4210, "chim": 4211, "zar": 4212, "muff": 4213, "bugs": 4214, "Jerry": 4215, "aroo": 4216, "anci": 4217, "snif": 4218, "bush": 4219, "aun": 4220, "top,": 4221, "ken": 4222, "tower.": 4223, "Lit": 4224, "known": 4225, "bush.": 4226, "yes,": 4227, "knocked": 4228, "woods": 4229, "long,": 4230, "tum": 4231, "deer": 4232, "tled": 4233, "kes.": 4234, "lop": 4235, "st!": 4236, "Pr": 4237, "food,": 4238, "radi": 4239, "stories": 4240, "erin": 4241, "print": 4242, "plate": 4243, "pocket": 4244, "blow": 4245, "run,": 4246, "xer": 4247, "ful.\"": 4248, "chase": 4249, "Ha": 4250, "mysterious": 4251, "blue.": 4252, "inside,": 4253, "rar": 4254, "swings": 4255, "se!": 4256, "stru": 4257, "Squ": 4258, "lead": 4259, "herself": 4260, "enthusi": 4261, "reen": 4262, "too!": 4263, "kang": 4264, "recor": 4265, "ges": 4266, "impati": 4267, "gator": 4268, "spid": 4269, "jam": 4270, "ceed": 4271, "team": 4272, "spread": 4273, "become": 4274, "fruit.": 4275, "Bobby": 4276, "oint": 4277, "honest": 4278, "exc": 4279, "brid": 4280, "sef": 4281, "fight.": 4282, "mean.": 4283, "rosco": 4284, "cater": 4285, "kicked": 4286, "excited!": 4287, "loves": 4288, "asht": 4289, "play!\"": 4290, "row.": 4291, "itch": 4292, "ade.": 4293, "twins.": 4294, "Bunny": 4295, "Inside,": 4296, "no!": 4297, "roco": 4298, "lly.": 4299, "bw": 4300, "things,": 4301, "I'll": 4302, "smell": 4303, "side.": 4304, "pc": 4305, "elderly": 4306, "calm": 4307, "say.": 4308, "\"Me": 4309, "shes.": 4310, "mpoo": 4311, "drum": 4312, "mud.": 4313, "mixed": 4314, "is?": 4315, "tasted": 4316, "tly.": 4317, "themsel": 4318, "Mia,": 4319, "milk": 4320, "pm": 4321, "old.": 4322, "ckla": 4323, "worm": 4324, "eq": 4325, "which": 4326, "bossy": 4327, "on!\"": 4328, "ots.": 4329, "adi": 4330, "saur": 4331, "shine": 4332, "party,": 4333, "set,": 4334, "bbor": 4335, "sol": 4336, "daughter": 4337, "seek": 4338, "\"Pleas": 4339, "lake": 4340, "Sara.": 4341, "Tiny": 4342, "machine": 4343, "soon,": 4344, "yin": 4345, "guil": 4346, "nose.": 4347, "dou": 4348, "mined": 4349, "deter": 4350, "gold": 4351, "rece": 4352, "mad.": 4353, "feed": 4354, "Hen": 4355, "person": 4356, "squirrel.": 4357, "birthday": 4358, "tol": 4359, "pis": 4360, "rude": 4361, "spent": 4362, "problem.": 4363, "lazy": 4364, "\"Please,": 4365, "class": 4366, "hock": 4367, "thick": 4368, "taught": 4369, "cookies.": 4370, "picture.": 4371, "weak": 4372, "erat": 4373, "open.": 4374, "scary.": 4375, "now.\"": 4376, "sell": 4377, "Rex": 4378, "ved,": 4379, "brilli": 4380, "ons,": 4381, "parent": 4382, "il,": 4383, "igz": 4384, "wouldn't": 4385, "pictures.": 4386, "-cre": 4387, "pass": 4388, "spag": 4389, "jumping": 4390, "bench.": 4391, "poor": 4392, "interesting": 4393, "ks.": 4394, "famous": 4395, "lico": 4396, "differen": 4397, "suddenly": 4398, "rabbit.": 4399, "creati": 4400, "case": 4401, "bounce": 4402, "alm": 4403, "bike.": 4404, "dug": 4405, "\"Wow!": 4406, "painted": 4407, "wing.": 4408, "jun": 4409, "usa": 4410, "reci": 4411, "tar": 4412, "nap.": 4413, "wre": 4414, "hose": 4415, "gon.": 4416, "tast": 4417, "hard,": 4418, "life": 4419, "ure,": 4420, "\"Max,": 4421, "lam": 4422, "Benny": 4423, "oto": 4424, "ep,": 4425, "ved.": 4426, "wrong": 4427, "Lily!": 4428, "ghty.": 4429, "is:": 4430, "equ": 4431, "amazed": 4432, "fence.": 4433, "oplane": 4434, "ilb": 4435, "finding": 4436, "cact": 4437, "twins": 4438, "tells": 4439, "depend": 4440, "ool,": 4441, "hears": 4442, "reas": 4443, "nado": 4444, "rare": 4445, "esn": 4446, "Ella": 4447, "whisper": 4448, "tub": 4449, "law": 4450, "\"K": 4451, "go!\"": 4452, "Wa": 4453, "zer": 4454, "words.": 4455, "bum": 4456, "weird": 4457, "mighty": 4458, "ce!\"": 4459, "swan": 4460, "swimming": 4461, "cycle": 4462, "Sm": 4463, "erhe": 4464, "uper": 4465, "thie": 4466, "Zoom": 4467, "sticks": 4468, "fe.": 4469, "k?": 4470, "ator": 4471, "er?\"": 4472, "spray": 4473, "ek.": 4474, "diam": 4475, "joy.": 4476, "empty": 4477, "\"What's": 4478, "envi": 4479, "les,": 4480, "lef": 4481, "ature": 4482, "inf": 4483, "lls.": 4484, "ala": 4485, "enor": 4486, "osaur": 4487, "p!\"": 4488, "sg": 4489, "ity.": 4490, "wake": 4491, "bowl.": 4492, "Tom!": 4493, "ort.": 4494, "healthy": 4495, "tried,": 4496, "ribb": 4497, "Doggy": 4498, "sive.": 4499, "cheap": 4500, "ied.": 4501, "carto": 4502, "searched": 4503, "looked,": 4504, "bicy": 4505, "was,": 4506, "\"Where": 4507, "ewe": 4508, "music.": 4509, "wings.": 4510, "leaf.": 4511, "you,\"": 4512, "funny.": 4513, "spar": 4514, "messy": 4515, "Yes": 4516, "ious.": 4517, "espe": 4518, "ped.": 4519, "-s": 4520, "rl": 4521, "thqu": 4522, "ml": 4523, "nee": 4524, "lies": 4525, "obj": 4526, "dinosaur": 4527, "ancient": 4528, "et!": 4529, "ima": 4530, "everywhe": 4531, "ident": 4532, "herman": 4533, "ctive": 4534, "guin": 4535, "gently": 4536, "puddle.": 4537, "als,": 4538, "net.": 4539, "lang": 4540, "washed": 4541, "brocco": 4542, "rocks.": 4543, "Please": 4544, "here.": 4545, "Fo": 4546, "bo.": 4547, "hene": 4548, "explore.": 4549, "liant": 4550, "noisy": 4551, "neighbor": 4552, "Many": 4553, "m?": 4554, "\"Oh,": 4555, "'l": 4556, "path": 4557, "sleepy": 4558, "wd": 4559, "leav": 4560, "etball": 4561, "queen": 4562, "edl": 4563, "Let\\xe2\\x80": 4564, "towe": 4565, "Sop": 4566, "other,": 4567, "cost": 4568, "dangerous.": 4569, "ine,": 4570, "Ducky": 4571, "ised,": 4572, "fall.": 4573, "sky,": 4574, "joined": 4575, "uable": 4576, "peaceful": 4577, "surprise,": 4578, "please!\"": 4579, "potato": 4580, "noises": 4581, "ped,": 4582, "nk": 4583, "Ou": 4584, "hung": 4585, "ane.": 4586, "hot.": 4587, "ira": 4588, "lunch.": 4589, "stars": 4590, "backyard.": 4591, "ors.": 4592, "pb": 4593, "confused.": 4594, "bunny.": 4595, "shel": 4596, "cog": 4597, "important.": 4598, "sum": 4599, "ble,": 4600, "less.": 4601, "boy,": 4602, "jung": 4603, "len": 4604, "plet": 4605, "sen": 4606, "uring": 4607, "ducks": 4608, "ues": 4609, "thirst": 4610, "Se": 4611, "incredible": 4612, "Instea": 4613, "rove": 4614, "acce": 4615, "eked": 4616, "ce-": 4617, "butterfly.": 4618, "inut": 4619, "stuff": 4620, "are.": 4621, "pol": 4622, "toas": 4623, "Jenny": 4624, "bird!": 4625, "sick.": 4626, "nur": 4627, "ici": 4628, "ran,": 4629, "door,": 4630, "goodbye.": 4631, "\"Hello": 4632, "Little": 4633, "went.": 4634, "prince": 4635, "cker": 4636, "job.": 4637, "eez": 4638, "Ali": 4639, "dough": 4640, "ll,": 4641, "knowing": 4642, "normal": 4643, "story.": 4644, "group": 4645, "measure": 4646, "rim": 4647, "wrote": 4648, "enden": 4649, "-u": 4650, "hamm": 4651, "match": 4652, "clown": 4653, "frow": 4654, "ppor": 4655, "rom": 4656, "tidy": 4657, "slide,": 4658, "loon.": 4659, "famil": 4660, "ental": 4661, "-old": 4662, "balloon.": 4663, "cet": 4664, "fau": 4665, "along": 4666, "ear.": 4667, "land.": 4668, "past": 4669, "repe": 4670, "otted": 4671, "dry.": 4672, "my!\"": 4673, "acked": 4674, "legs": 4675, "see.": 4676, "can.": 4677, "tied": 4678, "go,": 4679, "entally": 4680, "others,": 4681, "pray": 4682, "bod": 4683, "mind": 4684, "space": 4685, "ier.": 4686, "loyal": 4687, "seum": 4688, "solve": 4689, "sr": 4690, "istent": 4691, "bench": 4692, "as,": 4693, "event": 4694, "adventures": 4695, "rocket": 4696, "sting.": 4697, "iu": 4698, "selfish": 4699, "Bobo.": 4700, "ined.": 4701, "thermom": 4702, "hal": 4703, "faces.": 4704, "smart.": 4705, "Lis": 4706, "shake": 4707, "dream.": 4708, "lion.": 4709, "lebr": 4710, "olin": 4711, "shirt": 4712, "Your": 4713, "snow.": 4714, "fun.\"": 4715, "enorm": 4716, "enormous": 4717, "bean": 4718, "dog's": 4719, "red,": 4720, "train.": 4721, "liver": 4722, "andp": 4723, "imne": 4724, "iner": 4725, "bigger.": 4726, "aid.": 4727, "cave.": 4728, "-r": 4729, "hew": 4730, "ract": 4731, "jug": 4732, "mand": 4733, "3-": 4734, "polite": 4735, "money.": 4736, "hm": 4737, "ill.": 4738, "arth": 4739, "last": 4740, "bile": 4741, "automo": 4742, "fierce": 4743, "Buzz": 4744, "xa": 4745, "arms": 4746, "\"Who": 4747, "Sammy": 4748, "stori": 4749, "pepp": 4750, "nice,": 4751, "finished,": 4752, "Will": 4753, "unknown": 4754, "Jam": 4755, "worry": 4756, "pock": 4757, "trem": 4758, "thing,": 4759, "roar": 4760, "lunch": 4761, "na,": 4762, "whale": 4763, "vic": 4764, "unique": 4765, "upset.": 4766, "enj": 4767, "using": 4768, "ornam": 4769, "police": 4770, "Fi": 4771, "surprised,": 4772, "vers": 4773, "wealthy": 4774, "Wel": 4775, "unusual": 4776, "iled.": 4777, "n\u2019t": 4778, "fence": 4779, "paint.": 4780, "ables": 4781, "look.": 4782, "school": 4783, "twist": 4784, "gets": 4785, "remind": 4786, "almost": 4787, "h-": 4788, "tion.": 4789, "Pen": 4790, "\"Now": 4791, "edr": 4792, "peanut": 4793, "creative": 4794, "pocket.": 4795, "fragile": 4796, "the.": 4797, "inked": 4798, "atu": 4799, "treats": 4800, "noises.": 4801, "\"Are": 4802, "cozy": 4803, "anyone": 4804, "'.": 4805, "search": 4806, "fruits": 4807, "comput": 4808, "buck": 4809, "pasta": 4810, "lf.": 4811, "village,": 4812, "cool.": 4813, "fish,": 4814, "frid": 4815, "roph": 4816, "Anna,": 4817, "\u201cIt": 4818, "Andy": 4819, "sport": 4820, "shro": 4821, "hairy": 4822, "shoc": 4823, "pump": 4824, "py.": 4825, "shie": 4826, "erry": 4827, "easy": 4828, "enda": 4829, "ext": 4830, "paw": 4831, "nosy": 4832, "iful.": 4833, "line": 4834, "care.": 4835, "plat": 4836, "and?\"": 4837, "Yu": 4838, "ghtf": 4839, "jumped,": 4840, "mend": 4841, "recom": 4842, "Spe": 4843, "shoot": 4844, "tough": 4845, "upset": 4846, "chur": 4847, "\"Stop": 4848, "generous": 4849, "beautiful.": 4850, "trouble.": 4851, "sla": 4852, "\"Mommy,": 4853, "edd": 4854, "hl": 4855, "nted": 4856, "lph": 4857, "ror.": 4858, "Bub": 4859, "zor": 4860, "edly": 4861, "veter": 4862, "ppin": 4863, "clouds": 4864, "-l": 4865, "wrap": 4866, "berries.": 4867, "ead,": 4868, "best.": 4869, "Look": 4870, "Har": 4871, "shining,": 4872, "balance": 4873, "edle": 4874, "By": 4875, "pho": 4876, "vie": 4877, "Jack.": 4878, "n.\"": 4879, "moder": 4880, "toe": 4881, "spotted": 4882, "collect": 4883, "band-": 4884, "girl,": 4885, "guess": 4886, "pret": 4887, "sile": 4888, "cane": 4889, "win.": 4890, "ghter.": 4891, "word": 4892, "lower": 4893, "happen.": 4894, "n?": 4895, "lifted": 4896, "animals,": 4897, "Even": 4898, "pumpkin": 4899, "grow.": 4900, "f!\"": 4901, "poo": 4902, "candy.": 4903, "riz": 4904, "wich.": 4905, "shop.": 4906, "Good": 4907, "opc": 4908, "jolly": 4909, "berri": 4910, "miss": 4911, "\\x9cM": 4912, "leto": 4913, "ghing.": 4914, "snack.": 4915, "shark": 4916, "dolls": 4917, "singing.": 4918, "\\x9d.": 4919, "cube": 4920, "bour": 4921, "cross": 4922, "yd": 4923, "guit": 4924, "birds,": 4925, "rock,": 4926, "tomato": 4927, "Ye": 4928, "treat.": 4929, "map": 4930, "coming.": 4931, "ic,": 4932, "pizza": 4933, "ayf": 4934, "ship.": 4935, "ise!": 4936, "kle": 4937, "laughing.": 4938, "l's": 4939, "no!\"": 4940, "hs": 4941, "ourite": 4942, "okc": 4943, "taken": 4944, "lum": 4945, "soup.": 4946, "shapes.": 4947, "broke.": 4948, "appeared": 4949, "this?\"": 4950, "ppre": 4951, "picks": 4952, "explain": 4953, "ka": 4954, "free.": 4955, "\"If": 4956, "dolphin": 4957, "playf": 4958, "ambul": 4959, "minut": 4960, "run.": 4961, "picn": 4962, "puzzle": 4963, "crocodi": 4964, "ser.": 4965, "bers": 4966, "brilliant": 4967, "rema": 4968, "tory.": 4969, "batter": 4970, "happened!": 4971, "-ye": 4972, "wrapped": 4973, "bake": 4974, "gift.": 4975, "incre": 4976, "oven": 4977, "eak": 4978, "closer.": 4979, "standing": 4980, "corn.": 4981, "oming": 4982, "ball!\"": 4983, "base": 4984, "rnal": 4985, "afraid": 4986, "helicop": 4987, "now,": 4988, "chocolate": 4989, "alou": 4990, "relie": 4991, "zip": 4992, "us.\"": 4993, "fighting": 4994, "thes,": 4995, "stoo": 4996, "cave": 4997, "cabin": 4998, "fly,": 4999, "thus": 5000, "value": 5001, "enve": 5002, "unch": 5003, "se!\"": 5004, "lollipop": 5005, "weig": 5006, "eventu": 5007, "mattre": 5008, "locked": 5009, "etimes,": 5010, "better.\"": 5011, "bridge": 5012, "uncom": 5013, "shoes.": 5014, "Sq": 5015, "thir": 5016, "iff": 5017, "tho": 5018, "square": 5019, "chew": 5020, "serve": 5021, "thankful": 5022, "comp": 5023, "Hi": 5024, "giraf": 5025, "cake,": 5026, "st.\"": 5027, "twig": 5028, "beak.": 5029, "ckb": 5030, "ised!": 5031, "spon": 5032, "\"Sorry,": 5033, "do?\"": 5034, "rad": 5035, "resting.": 5036, "sandwich": 5037, "ings,": 5038, "auto": 5039, "ist.": 5040, "giving": 5041, "dirt.": 5042, "erhero": 5043, "gem": 5044, "blem": 5045, "dogs": 5046, "crazy": 5047, "friendly.": 5048, "surprised!": 5049, "yb": 5050, "Cu": 5051, "ckl": 5052, "crawled": 5053, "bj": 5054, "quiet.": 5055, "grandma.": 5056, "trip": 5057, "kers.": 5058, "luck": 5059, "rubbed": 5060, "snack": 5061, "ee,": 5062, "mine!\"": 5063, "goat": 5064, "cado": 5065, "glass": 5066, "gro": 5067, "stion": 5068, "Sometimes": 5069, "Hel": 5070, "you!": 5071, "envelo": 5072, "fet": 5073, "ement.": 5074, "anin": 5075, "mle": 5076, "moto": 5077, "now!\"": 5078, "d,\"": 5079, "helps": 5080, "Ra": 5081, "deaf": 5082, "unp": 5083, "wanted.": 5084, "ladder": 5085, "act": 5086, "sock": 5087, "versit": 5088, "borrow": 5089, "pupp": 5090, "mare": 5091, "Pipp": 5092, "tape": 5093, "blanket.": 5094, "flag": 5095, "village": 5096, "\"Ben,": 5097, "yaw": 5098, "ned.": 5099, "mug": 5100, "seek.": 5101, "dove": 5102, "saw.": 5103, "delicate": 5104, "sage.": 5105, "laund": 5106, "original": 5107, "ows.": 5108, "cars,": 5109, "rise": 5110, "instead": 5111, "stam": 5112, "needs": 5113, "tomorrow": 5114, "stle": 5115, "itat": 5116, "built": 5117, "web": 5118, "illa": 5119, "Eventu": 5120, "roof": 5121, "o-": 5122, "songs": 5123, "gla": 5124, "choco": 5125, "breath": 5126, "ora": 5127, "orge": 5128, "steal": 5129, "keeper": 5130, "lug": 5131, "staf": 5132, "iast": 5133, "lds": 5134, "charm": 5135, "bright.": 5136, "yf": 5137, "chicken": 5138, "taxi": 5139, "hill,": 5140, "ot!": 5141, "bic": 5142, "you're": 5143, "modern": 5144, "ak.": 5145, "Mom,": 5146, "ous.\"": 5147, "ch.\"": 5148, "avoca": 5149, "choose": 5150, "scarf": 5151, "uth": 5152, "hec": 5153, "blue,": 5154, "\"Sam,": 5155, "h?": 5156, "cheerful": 5157, "kissed": 5158, "exploring": 5159, "ove": 5160, "bab": 5161, "shows": 5162, "honey": 5163, "plain": 5164, "slipped": 5165, "competit": 5166, "\"How": 5167, "bol": 5168, "sym": 5169, "ndr": 5170, "aked": 5171, "ut.": 5172, "scrat": 5173, "pot.": 5174, "march": 5175, "tered": 5176, "counted": 5177, "Oli": 5178, "licked": 5179, "screamed": 5180, "cious.": 5181, "ves,": 5182, "Jane.": 5183, "rent.": 5184, "patter": 5185, "ges.": 5186, "course": 5187, "vous.": 5188, "endar": 5189, "irs": 5190, "terrible": 5191, "poured": 5192, "p?": 5193, "rose": 5194, "Char": 5195, "gloomy": 5196, "Liz": 5197, "stubborn": 5198, "um,": 5199, "block": 5200, "ppil": 5201, "eral": 5202, "beak": 5203, "azz": 5204, "invited": 5205, "vel.": 5206, "ame.": 5207, "picnic": 5208, "belonged": 5209, "uar": 5210, "'s.": 5211, "spill": 5212, "sun,": 5213, "raced": 5214, "expensive": 5215, "xy": 5216, "is,": 5217, "imed": 5218, "asham": 5219, "stopped.": 5220, "happily.": 5221, "wil": 5222, "duck.": 5223, "treats.": 5224, "rubb": 5225, "polish": 5226, "foolish": 5227, "unat": 5228, "songs.": 5229, "closer,": 5230, "he.": 5231, "jec": 5232, "sors.": 5233, "coli": 5234, "nod": 5235, "lonely.": 5236, "balls.": 5237, "xing": 5238, "glue": 5239, "juice.": 5240, "Emily": 5241, "end!": 5242, "rage": 5243, "perfu": 5244, "dull": 5245, "mber,": 5246, "jet": 5247, "building": 5248, "arrived,": 5249, "man,": 5250, "today.": 5251, "Car": 5252, "different.": 5253, "aming": 5254, "cted.": 5255, "cab": 5256, "vend": 5257, "birthday.": 5258, "onfu": 5259, "loop": 5260, "clap": 5261, "lady.": 5262, "it,\"": 5263, "apples.": 5264, "Tin": 5265, "friendsh": 5266, "nearby": 5267, "Suddenly": 5268, "gent.": 5269, "orant": 5270, "safe.\"": 5271, "leg.": 5272, "Yes,": 5273, "-and": 5274, "plants": 5275, "ilab": 5276, "ation,": 5277, "man's": 5278, "Dad.": 5279, "ulu": 5280, "clock": 5281, "bear,": 5282, "sister,": 5283, "load": 5284, "docto": 5285, "ona": 5286, "rying": 5287, "humble": 5288, "ison": 5289, "Jake": 5290, "al!": 5291, "yes": 5292, "spun": 5293, "sort": 5294, "llig": 5295, "dancing": 5296, "create": 5297, "middle": 5298, "icy.": 5299, "suit": 5300, "liflow": 5301, "changed": 5302, "worry.": 5303, "eved.": 5304, "anymore,": 5305, "acti": 5306, "wig": 5307, "last,": 5308, "icle": 5309, "arm.": 5310, "dizz": 5311, "ay!\"": 5312, "rot.": 5313, "yach": 5314, "test.": 5315, "ys.": 5316, "bird!\"": 5317, "honey.": 5318, "k!\"": 5319, "stories.": 5320, "cone": 5321, "ordinary": 5322, "exper": 5323, "treasure.": 5324, "understo": 5325, "right,": 5326, "careful.\"": 5327, "rri": 5328, "haircut": 5329, "lamp": 5330, "thoughtful": 5331, "moms": 5332, "toon": 5333, "iar": 5334, "regular": 5335, "arto": 5336, "spoiled": 5337, "ebo": 5338, "asking": 5339, "lr": 5340, "okay?\"": 5341, "televis": 5342, "ately,": 5343, "rode": 5344, "happy.\"": 5345, "refriger": 5346, "towel": 5347, "Tom!\"": 5348, "slow.": 5349, "sag": 5350, "excited,": 5351, "pencil": 5352, "road": 5353, "clumsy": 5354, "ini": 5355, "Ex": 5356, "vid": 5357, "red.": 5358, "present": 5359, "invit": 5360, "read.": 5361, "nervous": 5362, "\u2019t": 5363, "morning": 5364, "petit": 5365, "avail": 5366, "children.": 5367, "imagin": 5368, "k.\"": 5369, "mommy.": 5370, "ourful": 5371, "useful": 5372, "close.": 5373, "itiv": 5374, "Spi": 5375, "l!\"": 5376, "hopping": 5377, "uncomfor": 5378, "pear": 5379, "shadow": 5380, "ain.": 5381, "dead": 5382, "button.": 5383, "ian.": 5384, "warn": 5385, "drawing": 5386, "lying": 5387, "crane": 5388, "ants.": 5389, "i!": 5390, "selfish.": 5391, "answer.": 5392, "ma's": 5393, "ters": 5394, "Joh": 5395, "tti.": 5396, "Peter": 5397, "chubby": 5398, "edge": 5399, "oes": 5400, "laughed,": 5401, "mirror": 5402, "parrot": 5403, "instead.": 5404, "Budd": 5405, "study": 5406, "milk.": 5407, "lapp": 5408, "pool": 5409, "Lulu": 5410, "ery.": 5411, "pour": 5412, "wind.": 5413, "wsp": 5414, "incl": 5415, "ude": 5416, "tis": 5417, "ed:": 5418, "amazed.": 5419, "pale": 5420, "!'": 5421, "ff.": 5422, "Ca": 5423, "bugs.": 5424, "soft,": 5425, "soft.": 5426, "dependable": 5427, "tiger": 5428, "nd,": 5429, "joke": 5430, "heart.": 5431, "higher.": 5432, "raven": 5433, "tired,": 5434, "flexible": 5435, "owl.": 5436, "idea!": 5437, "practiced": 5438, "pie": 5439, "gigg": 5440, "tex": 5441, "oven.": 5442, "berry.": 5443, "understand.": 5444, "away.\"": 5445, "kc": 5446, "decide": 5447, "hs.": 5448, "inky": 5449, "ow.\"": 5450, "crayons": 5451, "gifted": 5452, "na's": 5453, "aying": 5454, "stor": 5455, "ball.\"": 5456, "ashamed.": 5457, "dog!": 5458, "walks": 5459, "orh": 5460, "star.": 5461, "mole": 5462, "ween": 5463, "goose": 5464, "goril": 5465, "playful": 5466, "screw": 5467, "strug": 5468, "vase": 5469, "repair": 5470, "stone.": 5471, "gather": 5472, "isd": 5473, "ife.": 5474, "difficult": 5475, "Jes": 5476, "amen": 5477, "glove": 5478, "yourself": 5479, "cup.": 5480, "low,": 5481, "done.": 5482, "helmet": 5483, "soon.\"": 5484, "cat's": 5485, "ones": 5486, "charming": 5487, "lor.": 5488, "ber.": 5489, "\\x99re": 5490, "ables.": 5491, "couldn": 5492, "places.": 5493, "t\\xe2": 5494, "bled.": 5495, "der.": 5496, "me!": 5497, "crawl": 5498, "understood": 5499, "mos": 5500, "boring": 5501, "popular": 5502, "\"Sue,": 5503, "caterpillar": 5504, "soar": 5505, "here?\"": 5506, "scr": 5507, "trip.": 5508, "crown": 5509, "Instead,": 5510, "forw": 5511, "la,": 5512, "ly!\"": 5513, "Anna's": 5514, "obedient": 5515, "xe": 5516, "alous": 5517, "tooth": 5518, "eleph": 5519, "jealous": 5520, "oop": 5521, "club": 5522, "mistake.": 5523, "Pat": 5524, "welcome": 5525, "sack.": 5526, "arrass": 5527, "flut": 5528, "fur.": 5529, "s\"": 5530, "sailed": 5531, "asks": 5532, "ital.": 5533, "apr": 5534, "Lily!\"": 5535, "sungl": 5536, "bru": 5537, "cat!": 5538, "Mom!": 5539, "desser": 5540, "playgr": 5541, "lded": 5542, "omed": 5543, "aled": 5544, "\"V": 5545, "-lo": 5546, "far.": 5547, "Mummy": 5548, "gs.": 5549, "rub": 5550, "pepper": 5551, "ator.": 5552, "ner,": 5553, "zine": 5554, "trun": 5555, "waited.": 5556, "nail": 5557, "ve!\"": 5558, "gone!": 5559, "rov": 5560, "showing": 5561, "al.\"": 5562, "\"No": 5563, "eep": 5564, "shine.": 5565, "Fin.": 5566, "ord.": 5567, "clay": 5568, "It\\xe2\\x80": 5569, "True": 5570, "wiped": 5571, "sister.": 5572, "race,": 5573, "ir,": 5574, "ske": 5575, "pian": 5576, "Fri": 5577, "iest": 5578, "\"Let": 5579, "Brown": 5580, "let.": 5581, "admir": 5582, "cage.": 5583, "chi": 5584, "disco": 5585, "girl's": 5586, "upbo": 5587, "ight.": 5588, "iden": 5589, "sunflower": 5590, "sneez": 5591, "impressive": 5592, "Boun": 5593, "scissors": 5594, "hurri": 5595, "hide.": 5596, "astic.": 5597, "arras": 5598, "adventurous": 5599, "\"Give": 5600, "weap": 5601, "fee": 5602, "ched.": 5603, "inarian": 5604, "jacket": 5605, "tug": 5606, "show.": 5607, "barber": 5608, "at!": 5609, "fortun": 5610, "three-": 5611, "rne": 5612, "speak": 5613, "passed": 5614, "toy.\"": 5615, "ams": 5616, "tub.": 5617, "ingred": 5618, "comb": 5619, "waves": 5620, "swings.": 5621, "silly.": 5622, "eople": 5623, "poon": 5624, "mosquito": 5625, "this.": 5626, "smaller": 5627, "Pet": 5628, "teeth": 5629, "walking,": 5630, "away!": 5631, "true.": 5632, "smiling.": 5633, "gathered": 5634, "played.": 5635, "?\\xe2\\x80": 5636, "bitter": 5637, "\\x9cC": 5638, "them.\"": 5639, "basket.": 5640, "monster.": 5641, "\"U": 5642, "cially": 5643, "tht": 5644, "sick": 5645, "Alice": 5646, "hat\\xe2\\x80": 5647, "Timmy.": 5648, "inted.": 5649, "Frog": 5650, "apo": 5651, "ball?\"": 5652, "whenever": 5653, "jar.": 5654, "design": 5655, "crayons.": 5656, "good,": 5657, "serious": 5658, "hist": 5659, "rude.": 5660, "secret.": 5661, "\"Go": 5662, "going.": 5663, "iche": 5664, "Ri": 5665, "riv": 5666, "one.\"": 5667, "thought.": 5668, "explained": 5669, "shing": 5670, "cope": 5671, "cke": 5672, "arat": 5673, "brother,": 5674, "siz": 5675, "wagon": 5676, "couch": 5677, "erve": 5678, "aunt": 5679, "Max!": 5680, "jeep": 5681, "tty,": 5682, "era.": 5683, "pkin.": 5684, "bounced": 5685, "puz": 5686, "move!": 5687, "pool.": 5688, "ies,": 5689, "eventually": 5690, "fighting.": 5691, "moving": 5692, "brother.": 5693, "Sur": 5694, "street": 5695, "onion": 5696, "old,": 5697, "edic": 5698, "an'": 5699, "creature": 5700, "pointing": 5701, "father": 5702, "verse": 5703, "tick": 5704, "unlock": 5705, "bs.": 5706, "reve": 5707, "gy,": 5708, "pill": 5709, "ates": 5710, "life.": 5711, "graceful": 5712, "bubble": 5713, "ready.": 5714, "cobwe": 5715, "lively": 5716, "pter": 5717, "fine": 5718, "biggest": 5719, "distant": 5720, "elev": 5721, "nel.": 5722, "sim": 5723, "nice.\"": 5724, "surre": 5725, "coat.": 5726, "kiss": 5727, "etb": 5728, "prune": 5729, "People": 5730, "lue.": 5731, "successful": 5732, "om!": 5733, "oni": 5734, "bark": 5735, "power": 5736, "play.\"": 5737, "oti": 5738, "four": 5739, "two,": 5740, "reliable": 5741, "bread.": 5742, "didn": 5743, "Mitt": 5744, "vas": 5745, "us!\"": 5746, "yarn": 5747, "itse": 5748, "knows": 5749, "had.": 5750, "memo": 5751, "emer": 5752, "st!\"": 5753, "n!\"": 5754, "cak": 5755, "strong,": 5756, "Buddy.": 5757, "ses,": 5758, "nr": 5759, "shoe": 5760, "seas": 5761, "shrimp": 5762, "dile": 5763, "here.\"": 5764, "record": 5765, "balloons": 5766, "intro": 5767, "duce": 5768, "ali": 5769, "kite.": 5770, "nha": 5771, "while.": 5772, "embarrassed": 5773, "so,": 5774, "lizard": 5775, "sed,": 5776, "learning": 5777, "sounds.": 5778, "ground,": 5779, "relieved": 5780, "elc": 5781, "ting.": 5782, "stad": 5783, "ling.": 5784, "gate": 5785, "meadow": 5786, "cart": 5787, "squash": 5788, "skele": 5789, "plant.": 5790, "running.": 5791, "phy": 5792, "gum": 5793, "lace.": 5794, "frightened": 5795, "chee": 5796, "ice-cream": 5797, "decorate": 5798, "er'": 5799, "kitchen,": 5800, "Tr": 5801, "ole": 5802, "hood": 5803, "x!": 5804, "suff": 5805, "Mag": 5806, "tripped": 5807, "ghost": 5808, "spend": 5809, "time.\"": 5810, "perform": 5811, "ired": 5812, "dolls.": 5813, "magnet": 5814, "stopped,": 5815, "ike": 5816, "p.\"": 5817, "hat,": 5818, "bandage": 5819, "adventures.": 5820, "hwas": 5821, "teeth.": 5822, "roa": 5823, "bite.": 5824, "yst": 5825, "grandpa": 5826, "y\"": 5827, "ceil": 5828, "figure": 5829, "fell.": 5830, "encoura": 5831, "aud": 5832, "full.": 5833, "returned": 5834, "safe,": 5835, "beetle": 5836, "Wou": 5837, "skipped": 5838, "suddenly,": 5839, "order": 5840, "tive": 5841, "ssa": 5842, "path.": 5843, "dust": 5844, "fearful": 5845, "Bird": 5846, "Kim": 5847, "helicopter": 5848, "eup": 5849, "lish.": 5850, "modest": 5851, "drop": 5852, "Snow": 5853, "hest": 5854, "dul": 5855, "Wow": 5856, "eze": 5857, "ghted": 5858, "fog": 5859, "corner": 5860, "yie": 5861, "knife": 5862, "onke": 5863, "ished.": 5864, "alre": 5865, "skip": 5866, "rope.": 5867, "ense": 5868, "pst": 5869, "spit": 5870, "disgusting": 5871, "Grandpa": 5872, "yi": 5873, "judge": 5874, "lls,": 5875, "ch!": 5876, "-f": 5877, "pirate": 5878, "sugar": 5879, "kb": 5880, "marri": 5881, "painting": 5882, "calling": 5883, "exciting": 5884, "zebra": 5885, "plane.": 5886, "oul": 5887, "spot.": 5888, "gone,": 5889, "Are": 5890, "adorable": 5891, "managed": 5892, "en.\"": 5893, "flou": 5894, "how.": 5895, "cheered.": 5896, "\"t": 5897, "do,": 5898, "epy.": 5899, "horn": 5900, "eday": 5901, "away!\"": 5902, "assa": 5903, "\"Woo": 5904, "seeds": 5905, "rainbow.": 5906, "clas": 5907, "umbrella": 5908, "Miss": 5909, "yard,": 5910, "stretch": 5911, "zer.": 5912, "shut": 5913, "sweet.": 5914, "send": 5915, "abo": 5916, "ointed": 5917, "Big": 5918, "tank": 5919, "ticket": 5920, "musc": 5921, "guard": 5922, "trick": 5923, "pretty!\"": 5924, "mushroom": 5925, "Ste": 5926, "bone.": 5927, "organized": 5928, "Polly": 5929, "stac": 5930, "added": 5931, "paw.": 5932, "packed": 5933, "banana": 5934, "harsh": 5935, "back.\"": 5936, "toes": 5937, "plau": 5938, "noon": 5939, "ents.": 5940, "ucy,": 5941, "love.": 5942, "Qu": 5943, "tube": 5944, "found.": 5945, "land,": 5946, "Poppy": 5947, "first.\"": 5948, "liga": 5949, "Je": 5950, "inet": 5951, "swit": 5952, "Ab": 5953, "crocodile": 5954, "what's": 5955, "llen": 5956, "everything.": 5957, "back!\"": 5958, "photo": 5959, "in?\"": 5960, "ater.": 5961, "belt": 5962, "came,": 5963, "anis": 5964, "end'": 5965, "day.\"": 5966, "hie": 5967, "fs": 5968, "poem": 5969, "nfor": 5970, "harmless": 5971, "\"Wa": 5972, "dog!\"": 5973, "-looking": 5974, "return": 5975, "seal": 5976, "chir": 5977, "end?": 5978, "feet": 5979, "stupid": 5980, "acor": 5981, "falls": 5982, "rel,": 5983, "deliver": 5984, "statue": 5985, "port.": 5986, "uncle": 5987, "Where": 5988, "le?\"": 5989, "ise!\"": 5990, "ava": 5991, "toast": 5992, "utt": 5993, "Sk": 5994, "bottle.": 5995, "fluffy": 5996, "onate": 5997, "art.": 5998, "pond,": 5999, "acorn": 6000, "wid": 6001, "ergr": 6002, "discover": 6003, "over,": 6004, "pigeon": 6005, "nea": 6006, "ey.": 6007, "knee.": 6008, "me?": 6009, "here,": 6010, "cookie.": 6011, "strange.": 6012, "ounta": 6013, "ve.\"": 6014, "friend's": 6015, "ow,\"": 6016, "work,": 6017, "pine": 6018, "Give": 6019, "those": 6020, "spring": 6021, "eting": 6022, "ighe": 6023, "couch.": 6024, "empt": 6025, "cooked": 6026, "urri": 6027, "sword": 6028, "knot": 6029, "issi": 6030, "icer": 6031, "cereal": 6032, "iron": 6033, "\\x9cN": 6034, "isty": 6035, "cheese.": 6036, "cricket": 6037, "TV.": 6038, "eping": 6039, "ding.": 6040, "flies": 6041, "t?\"": 6042, "ss,": 6043, "bull": 6044, "frown": 6045, "amin": 6046, "realised": 6047, "replied": 6048, "cac": 6049, "ment.": 6050, "reak": 6051, "compassionate": 6052, "ome,": 6053, "ball!": 6054, "tree.\"": 6055, "marched": 6056, "bracelet": 6057, "er's": 6058, "poke": 6059, "resp": 6060, "spoon.": 6061, "reinde": 6062, "post": 6063, "did,": 6064, "angel": 6065, "tent.": 6066, "game,": 6067, "suggest": 6068, "isher": 6069, "n't.": 6070, "branches.": 6071, "De": 6072, "split": 6073, "Susie": 6074, "xes": 6075, "check": 6076, "knee": 6077, "extra": 6078, "allowed": 6079, "lite.": 6080, "iglo": 6081, "mask": 6082, "ria": 6083, "dizzy": 6084, "firepl": 6085, "agin": 6086, "istent.": 6087, "mop": 6088, "rave": 6089, "ately": 6090, "rna": 6091, "leopard": 6092, "snake.": 6093, "h.\"": 6094, "umbrel": 6095, "support": 6096, "soldier": 6097, "bell.": 6098, "an!": 6099, "aling": 6100, "fused": 6101, "marry": 6102, "raft": 6103, "newspap": 6104, "er,\"": 6105, "Daisy.": 6106, "metal": 6107, "peach": 6108, "confused": 6109, "hes,": 6110, "sandwic": 6111, "ashamed": 6112, "means": 6113, "hay": 6114, "independent": 6115, "flower,": 6116, "ree.": 6117, "sunglas": 6118, "grass,": 6119, "intelligent": 6120, "turkey": 6121, "hinoc": 6122, "doctor.": 6123, "es.\"": 6124, "ary,": 6125, "places": 6126, "popcorn": 6127, "by,": 6128, "feather": 6129, "gaz": 6130, "cka": 6131, "stranger": 6132, "games,": 6133, "n's": 6134, "organize": 6135, "beg": 6136, "insect": 6137, "\"Yes!": 6138, "tore": 6139, "thear": 6140, "spinning": 6141, "cushion": 6142, "aning": 6143, "cries.": 6144, "carefully.": 6145, "Tina": 6146, "hanging": 6147, "hurts": 6148, "holds": 6149, "whistle.": 6150, "filthy": 6151, "closet.": 6152, "ly's": 6153, "form.": 6154, "eyes,": 6155, "guitar": 6156, "Before": 6157, "bees": 6158, "lett": 6159, "Everywhere": 6160, "Mr": 6161, "Zip": 6162, "place,": 6163, "ess,": 6164, "ceed.": 6165, "salad": 6166, "necklace": 6167, "kangaroo": 6168, "enin": 6169, "boot": 6170, "rolling": 6171, "telling": 6172, "\"Spot,": 6173, "diction": 6174, "picking": 6175, "hats": 6176, "uter": 6177, "pretty,": 6178, "stuck.": 6179, "port": 6180, "flashlight": 6181, "speed": 6182, "sleepy.": 6183, "stin": 6184, "lest": 6185, "dreamed": 6186, "cats": 6187, "Mom!\"": 6188, "frustrated.": 6189, "mine.": 6190, "today.\"": 6191, "name.": 6192, "melon": 6193, "cope.": 6194, "smiling": 6195, "ely": 6196, "hoop": 6197, "Once,": 6198, "usic": 6199, "Fir": 6200, "atter": 6201, "Mam": 6202, "\"Re": 6203, "relax": 6204, "swing,": 6205, "year-old": 6206, "crystal": 6207, "You're": 6208, "ams.": 6209, "stars.": 6210, "alligator": 6211, "dive": 6212, "sign.": 6213, "l.\"": 6214, "is!": 6215, "mber.": 6216, "Mommy.": 6217, "help!\"": 6218, "gera": 6219, "driving": 6220, "enjoying": 6221, "a?": 6222, "trumpet": 6223, "smoke": 6224, "avocado": 6225, "oak": 6226, "round.": 6227, "chest": 6228, "Chi": 6229, "oo!\"": 6230, "later.": 6231, "clapped.": 6232, "meal": 6233, "oat": 6234, "Pete": 6235, "friend?\"": 6236, "brate": 6237, "engine": 6238, "Today,": 6239, "fruits.": 6240, "name?\"": 6241, "ctic": 6242, "Tim?\"": 6243, "pebble": 6244, "shore.": 6245, "bored.": 6246, "stamp": 6247, "once": 6248, "tremb": 6249, "onk": 6250, "clouds.": 6251, "lo.": 6252, "wait.": 6253, "thinking": 6254, "feet.": 6255, "glowing": 6256, "help.\"": 6257, "careless": 6258, "stit": 6259, "jump.": 6260, "watch.": 6261, "icine": 6262, "umm": 6263, "ney,": 6264, "better,": 6265, "fair.": 6266, "spilled": 6267, "gage": 6268, "bug,": 6269, "plants.": 6270, "string.": 6271, "shampoo": 6272, "travel": 6273, "En": 6274, "medicine": 6275, "edy.": 6276, "\u201cWhat": 6277, "terno": 6278, "from.": 6279, "determined": 6280, "crayon": 6281, "penc": 6282, "pretending": 6283, "lk.": 6284, "pendent.": 6285, "magic.": 6286, "ated,": 6287, "boys": 6288, "laim": 6289, "cy.": 6290, "bicycle": 6291, "Bob's": 6292, "wrong,": 6293, "real.": 6294, "opens": 6295, "argu": 6296, "lows": 6297, "alri": 6298, "comet": 6299, "thief": 6300, "today,": 6301, "weigh": 6302, "nods.": 6303, "flea": 6304, "nuts": 6305, "wishes": 6306, "urt.": 6307, "bile.": 6308, "ful!": 6309, "ome.": 6310, "Bob,": 6311, "ter!\"": 6312, "crack": 6313, "\\x9cD": 6314, "surf": 6315, "shake.": 6316, "aler": 6317, "awe": 6318, "lut": 6319, "pos": 6320, "drink.": 6321, "lo!": 6322, "h!\"": 6323, "carp": 6324, "pered": 6325, "tear": 6326, "Toby": 6327, "high,": 6328, "celebrate": 6329, "triangle": 6330, "xur": 6331, "piano": 6332, "et.\"": 6333, "green.": 6334, "mild": 6335, "en!\"": 6336, "escape": 6337, "eropl": 6338, "machine.": 6339, "\u201cThat": 6340, "stumbled": 6341, "Ne": 6342, "bottom": 6343, "lyfish": 6344, "Gre": 6345, "bubbles": 6346, "eted": 6347, "journey": 6348, "pressed": 6349, "dly": 6350, "ffy's": 6351, "my's": 6352, "made.": 6353, "fork": 6354, "urant": 6355, "movie": 6356, "rice": 6357, "raz": 6358, "rip": 6359, "days,": 6360, "thread": 6361, "dragon.": 6362, "eggs": 6363, "ece.": 6364, "ure!": 6365, "fut": 6366, "hunter": 6367, "stared": 6368, "ny's": 6369, "im.": 6370, "collec": 6371, "dad's": 6372, "sausage": 6373, "boats": 6374, "line.": 6375, "Rea": 6376, "Sund": 6377, "radish": 6378, "quiz": 6379, "stairs": 6380, "unne": 6381, "cano.": 6382, "discovered": 6383, "thirsty.": 6384, "often": 6385, "bby.": 6386, "naughty.": 6387, "octop": 6388, "Sally's": 6389, "stretched": 6390, "idea,": 6391, "bor.": 6392, "zoo.": 6393, "climb.": 6394, "edne": 6395, "eaky": 6396, "aeroplane": 6397, "\"Is": 6398, "mailbox": 6399, "microsco": 6400, "mint": 6401, "tree!": 6402, "!\",": 6403, "learn.": 6404, "nurse": 6405, "Sa": 6406, "faces": 6407, "\"Q": 6408, "fro": 6409, "Sara's": 6410, "yelled": 6411, "offered": 6412, "aye": 6413, "yer": 6414, "eros": 6415, "sauce": 6416, "ene": 6417, "scale": 6418, "ard,": 6419, "candle": 6420, "restaur": 6421, "kee": 6422, "hate": 6423, "brat": 6424, "igzag": 6425, "golf": 6426, "fra": 6427, "shell.": 6428, "rav": 6429, "shape": 6430, "triang": 6431, "ending.": 6432, "icti": 6433, "silver": 6434, "works": 6435, "boy's": 6436, "festiv": 6437, "chose": 6438, "coin.": 6439, "against": 6440, "already": 6441, "medi": 6442, "ood.": 6443, "mustache": 6444, "mot": 6445, "ring.": 6446, "ides": 6447, "ayt": 6448, "kiss.": 6449, "oo.": 6450, "legs.": 6451, "ahe": 6452, "n,\"": 6453, "Sue!": 6454, "\\x9cO": 6455, "it?": 6456, "complete": 6457, "mountain": 6458, "swings,": 6459, "x?": 6460, "ride.": 6461, "broccoli": 6462, "ruined": 6463, "pus": 6464, "to,": 6465, "trouble": 6466, "enough,": 6467, "peac": 6468, "tummy": 6469, "lter": 6470, "ever!\"": 6471, "yellow.": 6472, "for.": 6473, "nie": 6474, "stones": 6475, "garage.": 6476, "sheet": 6477, "Sam!": 6478, "sailor": 6479, "robe.": 6480, "arian": 6481, "cture": 6482, "Tim.\"": 6483, "arrow": 6484, "pony": 6485, "eme": 6486, "Soon": 6487, "slept": 6488, "boring.": 6489, "book,": 6490, "us?\"": 6491, "cloud.": 6492, "Pu": 6493, "seen.": 6494, "enough.": 6495, "break.": 6496, "stadi": 6497, "spoil": 6498, "ry!": 6499, "dolls,": 6500, "envious": 6501, "anxi": 6502, "loom": 6503, "disturb": 6504, "urous.": 6505, "play?\"": 6506, "destroy": 6507, "Mrs.": 6508, "puzzle.": 6509, "akfas": 6510, "ffic": 6511, "table,": 6512, "ot!\"": 6513, "ycle": 6514, "costu": 6515, "sweethe": 6516, "everywhere,": 6517, "knight": 6518, "again!": 6519, "Birdy": 6520, "Or": 6521, "tree!\"": 6522, "hippo": 6523, "sofa": 6524, "ezed": 6525, "happiness": 6526, "color.": 6527, "ils": 6528, "swim.": 6529, "Jil": 6530, "sion.": 6531, "tere": 6532, "Lucy,": 6533, "sink": 6534, "itty": 6535, "carpet": 6536, "anyone.": 6537, "nt,": 6538, "thea": 6539, "okshe": 6540, "ous!": 6541, "attach": 6542, "erous.": 6543, "asleep.": 6544, "irat": 6545, "nearby.": 6546, "Duck": 6547, "morr": 6548, "attractive": 6549, "irs.": 6550, "ths": 6551, "aper": 6552, "belon": 6553, "pper.": 6554, "opin": 6555, "anxious": 6556, "furnit": 6557, "friends!\"": 6558, "buil": 6559, "hare": 6560, "le?": 6561, "Spot!": 6562, "olin.": 6563, "belongs": 6564, "Who": 6565, "isk": 6566, "nodded,": 6567, "Pippin": 6568, "gd": 6569, "pige": 6570, "motorcycle": 6571, "mill": 6572, "find.": 6573, "dark,": 6574, "alert": 6575, "\"Here,": 6576, "gate.": 6577, "spaghetti": 6578, "jellyfish": 6579, "apolo": 6580, "radio": 6581, "recogni": 6582, "nl": 6583, "fridge": 6584, "Zi": 6585, "aint": 6586, "paws": 6587, "plis": 6588, "replied.": 6589, "armchair": 6590, "Sunny": 6591, "valuable": 6592, "t-": 6593, "comed": 6594, "point": 6595, "sh,": 6596, "ech": 6597, "oor": 6598, "dca": 6599, "troubled": 6600, "ray.": 6601, "drin": 6602, "king,": 6603, "dino": 6604, "vine": 6605, "u.": 6606, "twir": 6607, "either.": 6608, "weir": 6609, "ry!\"": 6610, "now?\"": 6611, "Kik": 6612, "octopus": 6613, "left.": 6614, "cauliflower": 6615, "asi": 6616, "reading": 6617, "pipe": 6618, "lend": 6619, "tall.": 6620, "cactus": 6621, "Billy.": 6622, "strang": 6623, "eled": 6624, "admi": 6625, "rer": 6626, "beet": 6627, "behave": 6628, "radis": 6629, "ze,": 6630, "ruct": 6631, "hammer": 6632, "Gig": 6633, "forward": 6634, "cloth.": 6635, "chess": 6636, "gie": 6637, "visit.": 6638, "miserable": 6639, "char": 6640, "\"OK": 6641, "saur.": 6642, "problem": 6643, "squirrel,": 6644, "finger": 6645, "nts.": 6646, "ising": 6647, "Rose": 6648, "needle": 6649, "pillow.": 6650, "tease": 6651, "Sarah.": 6652, "\\x99m": 6653, "arms.": 6654, "cocoa": 6655, "wipe": 6656, "thm": 6657, "rhy": 6658, "cident": 6659, "ide!": 6660, "gry,": 6661, "pare": 6662, "leaves,": 6663, "lage.": 6664, "getab": 6665, "hungry,": 6666, "cold,": 6667, "other's": 6668, "ness.": 6669, "essful.": 6670, "enthusiastic": 6671, "imagine": 6672, "cob": 6673, "empty.": 6674, "stack": 6675, "rocks,": 6676, "veil": 6677, "Ow": 6678, "nod.": 6679, "wish.": 6680, "otter": 6681, "fly!": 6682, "Wil": 6683, "half": 6684, "ed!\"": 6685, "bulb": 6686, "Spike": 6687, "aking": 6688, "sro": 6689, "keys": 6690, "unpack": 6691, "ult,": 6692, "wheat": 6693, "asur": 6694, "tears": 6695, "friger": 6696, "barn.": 6697, "botto": 6698, "pup": 6699, "baby.": 6700, "Tweet": 6701, "diamond": 6702, "set.": 6703, "\"They": 6704, "oms": 6705, "accept": 6706, "\"Tim": 6707, "envelope": 6708, "neck.": 6709, "blueber": 6710, "colat": 6711, "napkin": 6712, "finger.": 6713, "fountain": 6714, "shirt.": 6715, "\"Bye,": 6716, "\u2019m": 6717, "\"Here": 6718, "uce": 6719, "peeked": 6720, "isto": 6721, "es?\"": 6722, "my.\"": 6723, "poked": 6724, "ctu": 6725, "Kat": 6726, "tray": 6727, "friends?\"": 6728, "re?": 6729, "rnal.": 6730, "usu": 6731, "ctful": 6732, "owner.": 6733, "ly.\"": 6734, "accidentally": 6735, "here!\"": 6736, "doesn't": 6737, "snowman.": 6738, "qua": 6739, "drum.": 6740, "lawy": 6741, "Betty": 6742, "village.": 6743, "apples,": 6744, "hole,": 6745, "shiny,": 6746, "food.\"": 6747, "tomorrow.": 6748, "res,": 6749, "illar.": 6750, "whispered": 6751, "key,": 6752, "saying": 6753, "aeropl": 6754, "oyster": 6755, "marble": 6756, "gorilla": 6757, "\"s": 6758, "f.\"": 6759, "invite": 6760, "leaned": 6761, "y:": 6762, "flame": 6763, "bury": 6764, "vendor": 6765, "bathroom.": 6766, "ara,": 6767, "sunshine.": 6768, "dizzy.": 6769, "oter.": 6770, "sounded": 6771, "bree": 6772, "lime": 6773, "hion": 6774, "Bessie": 6775, "me,\"": 6776, "cky.": 6777, "ita": 6778, "Jazz": 6779, "crow": 6780, "restless": 6781, "vator": 6782, "camera": 6783, "brave,": 6784, "ativ": 6785, "eor": 6786, "scoo": 6787, "rubber": 6788, "meat": 6789, "nes.": 6790, "tap": 6791, "school,": 6792, "uncomfortable": 6793, "bathroom": 6794, "elevator": 6795, "again!\"": 6796, "carrying": 6797, "cardboard": 6798, "motorcy": 6799, "mistake": 6800, "cook.": 6801, "ignorant": 6802, "improve": 6803, "Is": 6804, "cleaning": 6805, "remove": 6806, "embarrassed.": 6807, "fireman": 6808, "df": 6809, "all!": 6810, "plate.": 6811, "amazing.": 6812, "helpful.": 6813, "moon.": 6814, "neat": 6815, "jumps": 6816, "skeleton": 6817, "dogs.": 6818, "scatter": 6819, "stairs.": 6820, "antly": 6821, "doll,": 6822, "skull": 6823, "\"Surpr": 6824, "ambulance": 6825, "animal.": 6826, "video": 6827, "bloom": 6828, "all,": 6829, "anyway.": 6830, "messy.": 6831, "Fluffy,": 6832, "ide!\"": 6833, "mountain.": 6834, "\"Ouch": 6835, "automobile": 6836, "seat.": 6837, "tire": 6838, "parents.": 6839, "barrel": 6840, ".\\xe2\\x80": 6841, "friendship": 6842, "rick": 6843, "tornado": 6844, "friend!\"": 6845, "ived": 6846, "snacks": 6847, "hello.": 6848, "fisherman": 6849, "collar": 6850, "tricks": 6851, "penguin": 6852, "popped": 6853, "closet": 6854, "d?\"": 6855, "counting": 6856, "unis": 6857, "shield": 6858, "iday": 6859, "eraser": 6860, "kayak": 6861, "ilty": 6862, "unt": 6863, "chasing": 6864, "bus.": 6865, "equip": 6866, "bushes.": 6867, "admire": 6868, "ma,": 6869, "wallet": 6870, "paws.": 6871, "a's": 6872, "message": 6873, "pulled,": 6874, "ck?": 6875, "h'": 6876, "ready,": 6877, "pilot": 6878, "guilty": 6879, "cudd": 6880, "chalk": 6881, "frigh": 6882, "ace,": 6883, "vegetables": 6884, "bucket.": 6885, "market": 6886, "case.": 6887, "warm,": 6888, "mixer": 6889, "bathe": 6890, "ugged": 6891, "went,": 6892, "Kitty,": 6893, "dam": 6894, "ason": 6895, "hungr": 6896, "ake.": 6897, "ok!": 6898, "eating,": 6899, "sighed": 6900, "barked,": 6901, "strawberry": 6902, "\\x9cS": 6903, "isy,": 6904, "books,": 6905, "cozy.": 6906, "handed": 6907, "swung": 6908, "lected": 6909, "ladder.": 6910, "starts": 6911, "quarrel": 6912, "princess.": 6913, "Lily,\"": 6914, "ppery.": 6915, "oned": 6916, "pad": 6917, "appeared.": 6918, "al!\"": 6919, "hall": 6920, "clean,": 6921, "answer": 6922, "flute": 6923, "ffe": 6924, "grandma's": 6925, "listening": 6926, "stirred": 6927, "frustrated": 6928, "zoomed": 6929, "mind.": 6930, "hockey": 6931, "bedroom": 6932, "ton.": 6933, "inger": 6934, "chain": 6935, "math": 6936, "roared": 6937, "nny": 6938, "Mandy": 6939, "understand?\"": 6940, "req": 6941, "yoga": 6942, "owner,": 6943, "persistent": 6944, "Dolly": 6945, "clou": 6946, "\"Yum": 6947, "cry,": 6948, "permis": 6949, "bags": 6950, "enter": 6951, "ous!\"": 6952, "regre": 6953, "stage": 6954, "doing.": 6955, "mirror.": 6956, "tov": 6957, "notice": 6958, "Dave": 6959, "tag": 6960, "vely": 6961, "mummy": 6962, "branches": 6963, "cable": 6964, "Help": 6965, "Would": 6966, "rican": 6967, "-look": 6968, "leep": 6969, "pants": 6970, "couldn't.": 6971, "bright,": 6972, "b!": 6973, "dreaming": 6974, "\\x9cHe": 6975, "\\x9cIt": 6976, "sy,": 6977, "\"Did": 6978, "on?\"": 6979, "gho": 6980, "curtain": 6981, "gers": 6982, "icing": 6983, "curious,": 6984, "inded": 6985, "band-aid": 6986, "anymore.\"": 6987, "ears": 6988, "package": 6989, "yours.": 6990, "behin": 6991, "sweater": 6992, "yogurt": 6993, "up.\"": 6994, "cane.": 6995, "new,": 6996, "later,": 6997, "fixing": 6998, "scarf.": 6999, "gized": 7000, "there.\"": 7001, "happening.": 7002, "ock": 7003, "amed.": 7004, "igno": 7005, "ter!": 7006, "eca": 7007, "comfort": 7008, "pinch": 7009, "finds": 7010, "eow": 7011, "lights": 7012, "helpless": 7013, "raf": 7014, "secon": 7015, "izing": 7016, "stove": 7017, "Twe": 7018, "excitem": 7019, "penny": 7020, "sandwich.": 7021, "true": 7022, "on:": 7023, "ients": 7024, "Wis": 7025, "cried,": 7026, "yelled,": 7027, "eye": 7028, "grabs": 7029, "Bow": 7030, "Bill": 7031, "cely": 7032, "ygen": 7033, "costume": 7034, "loved.": 7035, "bridge.": 7036, "ants,": 7037, "Sally,": 7038, "journey.": 7039, "bent": 7040, "folder": 7041, "Ton": 7042, "Timm": 7043, "leash": 7044, "ducks.": 7045, "ices": 7046, "\"th": 7047, "Rob": 7048, "stud": 7049, "fid": 7050, "reque": 7051, "knock": 7052, "shore": 7053, "separate": 7054, "volcano": 7055, "grant": 7056, "iding": 7057, "avou": 7058, "ngth": 7059, "hot,": 7060, "favourite": 7061, "surprise!": 7062, "thri": 7063, "saving": 7064, "building.": 7065, "riding": 7066, "reminded": 7067, "ried,": 7068, "vor": 7069, "perfor": 7070, "icin": 7071, "sudden": 7072, "discus": 7073, "admired": 7074, "wire": 7075, "mommy,": 7076, "things.\"": 7077, "vr": 7078, "orry": 7079, "rescue": 7080, "leaving": 7081, "there?\"": 7082, "Sara,": 7083, "xed.": 7084, "times": 7085, "Che": 7086, "exer": 7087, "wife": 7088, "short": 7089, "barking": 7090, "There,": 7091, "cell": 7092, "three,": 7093, "putting": 7094, "backyard": 7095, "sunsh": 7096, "trunk": 7097, "pping.": 7098, "died": 7099, "oceros": 7100, "stage.": 7101, "sleep,": 7102, "Under": 7103, "Teddy": 7104, "et!\"": 7105, "earth": 7106, "pie.": 7107, "mom.\"": 7108, "horse.": 7109, "wander": 7110, "\"p": 7111, "udd": 7112, "forgave": 7113, "upst": 7114, "ingr": 7115, "Max!\"": 7116, "thunder": 7117, "spoke": 7118, "tern": 7119, "spell": 7120, "found!\"": 7121, "replace": 7122, "stal.": 7123, "picnic.": 7124, "muse": 7125, "patient.": 7126, "powder": 7127, "rushed": 7128, "-g": 7129, "hook": 7130, "sandbox.": 7131, "gat": 7132, "rs,": 7133, "Johnny": 7134, "\"Your": 7135, "coins": 7136, "hood.": 7137, "fox.": 7138, "hero.": 7139, "box?\"": 7140, "holid": 7141, "patch": 7142, "wheels": 7143, "spirit": 7144, "dream,": 7145, "prevent": 7146, "switch": 7147, "numbers": 7148, "uggled": 7149, "firework": 7150, "rhinoceros": 7151, "founta": 7152, "blinked": 7153, "barn": 7154, "gled": 7155, "encou": 7156, "cag": 7157, "giggled": 7158, "movi": 7159, "phy.": 7160, "shrink": 7161, "restore": 7162, "nods": 7163, "ened,": 7164, "raise": 7165, "walk,": 7166, "afraid.": 7167, "mule": 7168, "Rab": 7169, "Slow": 7170, "coal": 7171, "ries,": 7172, "gara": 7173, "island": 7174, "bee.": 7175, "purse": 7176, "toy!": 7177, "steps": 7178, "eon": 7179, "iful,": 7180, "pected.": 7181, "stove.": 7182, "scooter": 7183, "owm": 7184, "warned": 7185, "clothes,": 7186, "farm,": 7187, "kly": 7188, "inve": 7189, "Next": 7190, "violin": 7191, "organized.": 7192, "stops": 7193, "rabbit,": 7194, "superhero": 7195, "One,": 7196, "along.": 7197, "beautiful,": 7198, "cord": 7199, "Howe": 7200, "prize": 7201, "shade": 7202, "ilo": 7203, "indne": 7204, "nug": 7205, "\u201cLet\u2019s": 7206, "notebook": 7207, "ensi": 7208, "Red": 7209, "ignore": 7210, "ili": 7211, "spor": 7212, "yle": 7213, "gling": 7214, "itten": 7215, "Lila.": 7216, "snacks.": 7217, "wear.": 7218, "excla": 7219, "imed.": 7220, "frame": 7221, "go.\"": 7222, "sticks.": 7223, "ced.": 7224, "spir": 7225, "expe": 7226, "pushing": 7227, "boat,": 7228, "looking.": 7229, "weep": 7230, "ways.": 7231, "gentle.": 7232, "hoping": 7233, "celery": 7234, "shiver": 7235, "os.": 7236, "that!\"": 7237, "bubbles.": 7238, "kinds": 7239, "robot.": 7240, "ge!": 7241, "ful!\"": 7242, "imagined": 7243, "squeeze": 7244, "off,": 7245, "screamed.": 7246, "\"Wow!\"": 7247, "film": 7248, "carrots": 7249, "washer.": 7250, "display": 7251, "ician": 7252, "Til": 7253, "ions": 7254, "sighed.": 7255, "anic": 7256, "allow": 7257, "letter.": 7258, "tice": 7259, "jungle.": 7260, "tay": 7261, "ucti": 7262, "instr": 7263, "ashing": 7264, "bath.": 7265, "\"thank": 7266, "attent": 7267, "mechan": 7268, "helm": 7269, "wber": 7270, "computer": 7271, "sauc": 7272, "journal": 7273, "pulls": 7274, "interesting.": 7275, "hanger": 7276, "be,": 7277, "practi": 7278, "musician": 7279, "corner.": 7280, "lotion": 7281, "ope": 7282, "ollow": 7283, "change.": 7284, "ry,\"": 7285, "wel.": 7286, "shy.": 7287, "grateful.": 7288, "tery": 7289, "diary": 7290, "want.": 7291, "beep": 7292, "\"Yuck": 7293, "Whiskers.": 7294, "roar.": 7295, "salt": 7296, "car!\"": 7297, "boxes": 7298, "day!": 7299, "peek": 7300, "uage.": 7301, "Zig": 7302, "fuel": 7303, "Pandy": 7304, "Com": 7305, "Ellie": 7306, "woods,": 7307, "rum": 7308, "egg.": 7309, "given": 7310, "homes.": 7311, "uage": 7312, "obo": 7313, "its,": 7314, "sneak": 7315, "cing.": 7316, "hut": 7317, "please.": 7318, "field,": 7319, "staff": 7320, "earthqu": 7321, "turn.": 7322, "Mit": 7323, "grown-up": 7324, "sunshine": 7325, "model": 7326, "Bi": 7327, "assed,": 7328, "sam": 7329, "wardrobe": 7330, "sandw": 7331, "\"Yes": 7332, "leave.": 7333, "reindeer": 7334, "gt": 7335, "poli": 7336, "prepare": 7337, "t\"": 7338, "able,": 7339, "mun": 7340, "giraffe": 7341, "cesh": 7342, "steak": 7343, "bathrobe": 7344, "puppy.": 7345, "apple,": 7346, "behind.": 7347, "waffle": 7348, "Fox": 7349, "practice": 7350, "ute.": 7351, "myse": 7352, "supply": 7353, "tutor": 7354, "nervous.": 7355, "ure!\"": 7356, "yarn.": 7357, "island.": 7358, "gear": 7359, "parade": 7360, "ule": 7361, "pushes": 7362, "weak.": 7363, "\"Tom": 7364, "cared": 7365, "crab.": 7366, "family,": 7367, "firef": 7368, "chest.": 7369, "throwing": 7370, "Abig": 7371, "out!": 7372, "ioned": 7373, "agree": 7374, "ck's": 7375, "luff": 7376, "attre": 7377, "Mimi.": 7378, "waste": 7379, "buttons": 7380, "unite": 7381, "car.\"": 7382, "shor": 7383, "provide": 7384, "shone": 7385, "houses": 7386, "draw.": 7387, "moment,": 7388, "letting": 7389, "a!\"": 7390, "lock.": 7391, "stick,": 7392, "yacht": 7393, "ornament": 7394, "truth.": 7395, "tress": 7396, "mare.": 7397, "opened,": 7398, "stream": 7399, "ile.": 7400, "themselves.": 7401, "kids,": 7402, "climbing": 7403, "ctive.": 7404, "punish": 7405, "Sometimes,": 7406, "ast.": 7407, "screen": 7408, "tong": 7409, "iam": 7410, "missile": 7411, "ss-": 7412, "shakes": 7413, "towers": 7414, "\"Hi!": 7415, "scissors.": 7416, "available": 7417, "boo": 7418, "higher,": 7419, "oting": 7420, "una": 7421, "onger.": 7422, "Shar": 7423, "on'": 7424, "pleased": 7425, "desk": 7426, "five": 7427, "keeping": 7428, "onger": 7429, "answered,": 7430, "gain": 7431, "costum": 7432, "mitten": 7433, "ppro": 7434, "ten.": 7435, "stronger.": 7436, "lag": 7437, "h's": 7438, "kers,": 7439, "much,": 7440, "fter": 7441, "crown.": 7442, "stro": 7443, "eds.": 7444, "balloons.": 7445, "ared!": 7446, "early": 7447, "coot": 7448, "amer": 7449, "itive": 7450, "good.\"": 7451, "opke": 7452, "telephone": 7453, "ite,": 7454, "perfec": 7455, "opened.": 7456, "pictu": 7457, "py,": 7458, "sprayed": 7459, "ations": 7460, "sunglasses": 7461, "rake": 7462, "Rac": 7463, "Ke": 7464, "gh,": 7465, "lap": 7466, "rocket.": 7467, "pen.": 7468, "days.": 7469, "\u201cYou": 7470, "Lola": 7471, "roac": 7472, "cups": 7473, "mori": 7474, "cream,": 7475, "brigh": 7476, "iry.": 7477, "assp": 7478, "daddy.": 7479, "ced,": 7480, "essed": 7481, "toys.\"": 7482, "amm": 7483, "ilm": 7484, "delicious.": 7485, "battery": 7486, "row,": 7487, "questions.": 7488, "on?": 7489, "sleeping": 7490, "explor": 7491, "aid,": 7492, "football": 7493, "eha": 7494, "bit.": 7495, "ndry": 7496, "ites": 7497, "looking,": 7498, "mattress": 7499, "competitive": 7500, "r-": 7501, "kindness": 7502, "\"Well,": 7503, "vase.": 7504, "cone.": 7505, "harder": 7506, "foot.": 7507, "thanks": 7508, "slow,": 7509, "resist": 7510, "muffin": 7511, "meant": 7512, "ar!\"": 7513, "elo": 7514, "drawer": 7515, "easy.": 7516, "shaking": 7517, "miserable.": 7518, "Rem": 7519, "cat!\"": 7520, "hide-": 7521, "sniffed": 7522, "gth": 7523, "please.\"": 7524, "dress,": 7525, "gun.": 7526, "hisp": 7527, "painter": 7528, "ones.": 7529, "understood.": 7530, "cart.": 7531, "Cla": 7532, "plastic": 7533, "Mommy,": 7534, "-to": 7535, "makeup": 7536, "morning.": 7537, "doing?": 7538, "frog,": 7539, "owb": 7540, "repeat": 7541, "panda": 7542, "eding": 7543, "dren,": 7544, "fountain.": 7545, "Nex": 7546, "obe": 7547, "roof.": 7548, "universit": 7549, "look!": 7550, "ally?": 7551, "stion.": 7552, "scream.": 7553, "dreams": 7554, "complain": 7555, "wool": 7556, "Mike": 7557, "worked.": 7558, "falling": 7559, "jealous.": 7560, "ently": 7561, "colorful.": 7562, "hind": 7563, "carr": 7564, "disappoint": 7565, "ogur": 7566, "alarm": 7567, "gled.": 7568, "whip": 7569, "doing,": 7570, "uncomfortable.": 7571, "growing": 7572, "himself,": 7573, "ocean.": 7574, "pole": 7575, "special,": 7576, "George": 7577, "Olive": 7578, "flag.": 7579, "Bella.": 7580, "impatient.": 7581, "beef": 7582, "Luck": 7583, "drawings": 7584, "skirt": 7585, "Tommy.": 7586, "Kitty's": 7587, "wood.": 7588, "calendar": 7589, "float": 7590, "neighbour": 7591, "Lily?\"": 7592, "floor,": 7593, "museum": 7594, "tidy.": 7595, "quit": 7596, "ley.": 7597, "\"Mia,": 7598, "symbol": 7599, "examine": 7600, "forg": 7601, "ble!": 7602, "tunnel": 7603, "busy.": 7604, "ilth": 7605, "piz": 7606, "kitten.": 7607, "ghs.": 7608, "fairy.": 7609, "track": 7610, "ul!": 7611, "ints": 7612, "ssed.": 7613, "reach.": 7614, "Fif": 7615, "throws": 7616, "head,": 7617, "Han": 7618, "Buzzy": 7619, "Freddy": 7620, "handle": 7621, "\"There": 7622, "herb": 7623, "feathers": 7624, "toy!\"": 7625, "quickly.": 7626, "ostrich": 7627, "?'": 7628, "tol.": 7629, "microphone": 7630, "\u201cDon": 7631, "starting": 7632, "pastry": 7633, "tain,": 7634, "scle": 7635, "buckle": 7636, "Bou": 7637, "inside.\"": 7638, "anchor": 7639, "colourful": 7640, "skin": 7641, "fit.": 7642, "\\x9cH": 7643, "kind.\"": 7644, "Today": 7645, "you\"": 7646, "spear": 7647, "trusted": 7648, "later.\"": 7649, "healthy.": 7650, "iat": 7651, "refused": 7652, "bedroom.": 7653, "itive.": 7654, "zook": 7655, "distance.": 7656, "file": 7657, "Flo": 7658, "flapped": 7659, "too,\"": 7660, "royed": 7661, "bumped": 7662, "know,\"": 7663, "bored": 7664, "ssive.": 7665, "ned,": 7666, "competitive.": 7667, "mbers": 7668, "dare": 7669, "dishwasher": 7670, "appy": 7671, "face,": 7672, "sight": 7673, "gently.": 7674, "scold": 7675, "wand.": 7676, "eing": 7677, "juicy": 7678, "No,": 7679, "reward": 7680, "Joe.": 7681, "acat": 7682, "recommend": 7683, "teacher.": 7684, "Fred.": 7685, "laughs.": 7686, "k?\"": 7687, "horn.": 7688, "relieved.": 7689, "paper,": 7690, "pain.": 7691, "Emma.": 7692, "fought": 7693, "louder": 7694, "ever!": 7695, "impro": 7696, "zes": 7697, "use.": 7698, "tling": 7699, "shells": 7700, "ciou": 7701, "monkey.": 7702, "buzz": 7703, "hands,": 7704, "us,": 7705, "drops": 7706, "laser": 7707, "thq": 7708, "ashtray": 7709, "ocean": 7710, "ckers": 7711, "above": 7712, "regret": 7713, "augh": 7714, "mailbox.": 7715, "ant.\"": 7716, "Sam!\"": 7717, "up!": 7718, "cle,": 7719, "\"See,": 7720, "grou": 7721, "\"Som": 7722, "sail.": 7723, "welcome.": 7724, "smells": 7725, "disappear": 7726, "ed,\"": 7727, "Spot!\"": 7728, "pizza.": 7729, "w?": 7730, "kind,": 7731, "sts": 7732, "Pap": 7733, "shed.": 7734, "ull.": 7735, "unexpected.": 7736, "lipp": 7737, "body.": 7738, "mal.": 7739, "bloom.": 7740, "trade": 7741, "rok": 7742, "pes,": 7743, "backpa": 7744, "diamon": 7745, "crossed": 7746, "paid": 7747, "Mis": 7748, "hn.": 7749, "fee.": 7750, "happier": 7751, "Ba": 7752, "el,": 7753, "olcan": 7754, "pand": 7755, "uen": 7756, "pois": 7757, "walking.": 7758, "holes": 7759, "sea,": 7760, "cupboard": 7761, "ther?\"": 7762, "sparkly": 7763, "vegetables.": 7764, "Ele": 7765, "cooler": 7766, "first!\"": 7767, "Eventually,": 7768, "guitar.": 7769, "faucet": 7770, "inkle": 7771, "other.\"": 7772, "object": 7773, "towel.": 7774, ".'": 7775, "ckp": 7776, "lled": 7777, "trave": 7778, "ters.": 7779, "John.": 7780, "uss": 7781, "pistol": 7782, "swinging": 7783, "cooking": 7784, "queen.": 7785, "prize.": 7786, "remain": 7787, "car!": 7788, "miner": 7789, "-b": 7790, "sib": 7791, "cet.": 7792, "protec": 7793, "ids": 7794, "walls": 7795, "sink.": 7796, "checked": 7797, "cles": 7798, "esse": 7799, "Vel": 7800, "glad.": 7801, "some.": 7802, "ghs": 7803, "Binky": 7804, "Amy,": 7805, "th!": 7806, "zig": 7807, "navy": 7808, "possi": 7809, "bly": 7810, "disappeared": 7811, "owball": 7812, "Lilly": 7813, "lp!": 7814, "lightning": 7815, "office.": 7816, "unic": 7817, "\"Sto": 7818, "\"Ouch!\"": 7819, "joke.": 7820, "rush": 7821, "attic.": 7822, "ointed,": 7823, "lie.": 7824, "soap.": 7825, "fridge.": 7826, "Kiki": 7827, "trap": 7828, "squeezed": 7829, "forever": 7830, "copper": 7831, "theat": 7832, "you?": 7833, "ux": 7834, "bad,": 7835, "hospital.": 7836, "gize": 7837, "grape": 7838, "delay": 7839, "Out": 7840, "side,": 7841, "mouse,": 7842, "hive": 7843, "placed": 7844, "little.": 7845, "\u201cW": 7846, "--": 7847, "or'": 7848, "view": 7849, "elephant.": 7850, "sert": 7851, "sheep.": 7852, "Alex": 7853, "Joey": 7854, "thing.\"": 7855, "cape": 7856, "press": 7857, "vehicle": 7858, "Spl": 7859, "zipper": 7860, "Sad": 7861, "Speedy": 7862, "oe.": 7863, "magazine": 7864, "owd": 7865, "isy's": 7866, "hopp": 7867, "'\"": 7868, "don\\xe2\\x80": 7869, "ears.": 7870, "page": 7871, "left,": 7872, "baseball": 7873, "skill": 7874, "reverse": 7875, "expensive.": 7876, "ises.": 7877, "smile,": 7878, "For": 7879, "shocked": 7880, "esti": 7881, "this,": 7882, "ward,": 7883, "nicely": 7884, "chair,": 7885, "pee": 7886, "mother.": 7887, "day!\"": 7888, "Wednes": 7889, "balanc": 7890, "expect": 7891, "don\u2019t": 7892, "irt.": 7893, "like.": 7894, "td": 7895, "believed": 7896, "trash": 7897, "brothers": 7898, "one!\"": 7899, "e:": 7900, "Coco": 7901, "couldn\u2019t": 7902, "ead.\"": 7903, "nove": 7904, "cute.": 7905, "tools": 7906, "\"Stop,": 7907, "were.": 7908, "spider.": 7909, "weat": 7910, "edn": 7911, "pengu": 7912, "hq": 7913, "direc": 7914, "ble!\"": 7915, "c,": 7916, "hedge": 7917, "passp": 7918, "sudden,": 7919, "noon,": 7920, "monst": 7921, "basketball": 7922, "hand,": 7923, "human": 7924, "isf": 7925, "passport": 7926, "urta": 7927, "glow.": 7928, "library": 7929, "ases": 7930, "veterinarian": 7931, "utto": 7932, "times.": 7933, "clay.": 7934, "splashing": 7935, "quip": 7936, "between": 7937, "razor": 7938, "frightened.": 7939, "waves.": 7940, "nut.": 7941, "observe": 7942, "safar": 7943, "blouse": 7944, "fe,": 7945, "itter": 7946, "Ea": 7947, "bor,": 7948, "stions": 7949, "circle.": 7950, "zine.": 7951, "exerc": 7952, "Fu": 7953, "ent.\"": 7954, "ations.": 7955, "beach,": 7956, "\"Anna,": 7957, "more,": 7958, "soon!\"": 7959, "his.": 7960, "faste": 7961, "boots": 7962, "ther!": 7963, "laughs": 7964, "Here": 7965, "need.": 7966, "itself": 7967, "Zoomy": 7968, "searching": 7969, "oof": 7970, "uts": 7971, "lbo": 7972, "tip": 7973, "especially": 7974, "temp": 7975, "Fe": 7976, "zie": 7977, "Grace": 7978, "older": 7979, "tape.": 7980, "root": 7981, "mum.": 7982, "Carl": 7983, "loudly.": 7984, "fume": 7985, "grace": 7986, "nobo": 7987, "map.": 7988, "ant!": 7989, "you'": 7990, "hose.": 7991, "e\\xe2": 7992, "catch.": 7993, "ged,": 7994, "sie.": 7995, "fes": 7996, "trail": 7997, "grill": 7998, "yours": 7999, "hurt,": 8000, "sword.": 8001, "nice!\"": 8002, "jam.": 8003, "pit.": 8004, "feathers.": 8005, "lumber": 8006, "week": 8007, "cow.": 8008, "perfect.": 8009, "forth.": 8010, "image": 8011, "chocolate.": 8012, "could,": 8013, "li,": 8014, "op.": 8015, "ense.": 8016, "promise.": 8017, "dancer": 8018, "nec": 8019, "ic!": 8020, "Lily.\"": 8021, "label": 8022, "needed.": 8023, "jungle": 8024, "llo!": 8025, "Blue.": 8026, "shed": 8027, "share,": 8028, "shout.": 8029, "camera.": 8030, "Paul": 8031, "\"Ow,": 8032, "Maria": 8033, "letters": 8034, "infant": 8035, "hurry": 8036, "dinner,": 8037, "questions": 8038, "lry": 8039, "brick": 8040, "screen.": 8041, "do.\"": 8042, "Danny": 8043, "Ben!\"": 8044, "storm.": 8045, "carrot.": 8046, "lives": 8047, "turtle.": 8048, "somed": 8049, "nois": 8050, "pile.": 8051, "Jack's": 8052, "End.": 8053, "Mia!": 8054, "nobody": 8055, "lawyer": 8056, "Bab": 8057, "cries": 8058, "points": 8059, "subway": 8060, "snap": 8061, "\"Help!": 8062, "ular.": 8063, "nday": 8064, "helpless.": 8065, "question.": 8066, "bathtub": 8067, "lowing": 8068, "tricks.": 8069, "settle": 8070, "ul.\"": 8071, "pared": 8072, "wheel.": 8073, "nies": 8074, "bear!": 8075, "another.": 8076, "drawing.": 8077, "salad.": 8078, "careless.": 8079, "apron": 8080, "Wal": 8081, "enti": 8082, "log.": 8083, "zy,": 8084, "ously": 8085, "late,": 8086, "weather": 8087, "agree.": 8088, "See": 8089, "Sc": 8090, "heat": 8091, "tears.": 8092, "chore": 8093, "\\x80\\x94": 8094, "avo": 8095, "an.\"": 8096, "names": 8097, "Oh": 8098, "louder.": 8099, "finally,": 8100, "coffee": 8101, "Mon": 8102, "somewhere": 8103, "umpy.": 8104, "Sue!\"": 8105, "locked.": 8106, "siv": 8107, "bor's": 8108, "grapes": 8109, "Len": 8110, "taller": 8111, "bend": 8112, "wever": 8113, "moms.": 8114, "ions.": 8115, "burn": 8116, "tever": 8117, "Im": 8118, "wagon.": 8119, "ing,\"": 8120, "sparkled": 8121, "together?\"": 8122, "owe": 8123, "ld.\"": 8124, "cherries": 8125, "stream.": 8126, "sugar.": 8127, "Whenever": 8128, "seek,": 8129, "this!\"": 8130, "fresh": 8131, "ignored": 8132, "ry-": 8133, "medal": 8134, "hy.": 8135, "rang": 8136, "Please,": 8137, "moving.": 8138, "farmer.": 8139, "ched,": 8140, "introduce": 8141, "offi": 8142, "ts,": 8143, "\u201d.": 8144, "Leo.": 8145, "learnt": 8146, "verse.": 8147, "demand": 8148, "include": 8149, "meal.": 8150, "disappointed.": 8151, "close,": 8152, "\"y": 8153, "cere": 8154, "mode": 8155, "excitement.": 8156, "unli": 8157, "hay.": 8158, "cobweb": 8159, "car?\"": 8160, "aks": 8161, "wir": 8162, "Jack,": 8163, "Have": 8164, "landsca": 8165, "track.": 8166, "glue.": 8167, "Wat": 8168, "lamp.": 8169, "inside!": 8170, "yet.": 8171, "shoe.": 8172, "late": 8173, "cture.": 8174, "Jon": 8175, "bes": 8176, "didn\u2019t": 8177, "ota": 8178, "oats": 8179, "lugg": 8180, "liv": 8181, "esig": 8182, "wags": 8183, "Lucy!": 8184, "dom.": 8185, "\u201cYes,": 8186, "hre": 8187, "w!\"": 8188, "home?\"": 8189, "tunnel.": 8190, "ccess": 8191, "steam": 8192, "axe": 8193, "np": 8194, "summer": 8195, "it\\xe2\\x80": 8196, "cards": 8197, "ils.": 8198, "decis": 8199, "teaspoon": 8200, "blackboard": 8201, "digg": 8202, "butterfli": 8203, "sile.": 8204, "\"To": 8205, "John's": 8206, "pattern": 8207, "Ta": 8208, "shade.": 8209, "permit": 8210, "Ear": 8211, "urr": 8212, "sorry.\"": 8213, "idd": 8214, "Henry": 8215, "y\\xe2": 8216, "Bubbles": 8217, "lp,": 8218, "Tues": 8219, "gym": 8220, "vroom": 8221, "thermometer": 8222, "trophy": 8223, "Annie": 8224, "planet": 8225, "follows": 8226, "mechanic": 8227, "Bee": 8228, "following": 8229, "bow,": 8230, "hurt.\"": 8231, "bikes": 8232, "skin.": 8233, "ay,\"": 8234, "papers": 8235, "\"Help,": 8236, "with.\"": 8237, "novel": 8238, "smooth.": 8239, "sneeze": 8240, "celer": 8241, "Brow": 8242, "necklace.": 8243, "Remy.": 8244, "looked.": 8245, "twisted": 8246, "c!": 8247, "\"Now,": 8248, "yell": 8249, "ilit": 8250, "guilty.": 8251, "Ben!": 8252, "\"Z": 8253, "playground.": 8254, "poe": 8255, "weethe": 8256, "slides": 8257, "situ": 8258, "blocks,": 8259, "spic": 8260, "opera": 8261, "Charlie": 8262, "entered": 8263, "stronger": 8264, "thed": 8265, "turns.": 8266, "market.": 8267, "home!\"": 8268, "hipp": 8269, "zigzag": 8270, "Lisa.": 8271, "castle,": 8272, "laundry": 8273, "playground": 8274, "safely": 8275, "collar.": 8276, "help?\"": 8277, "eat,": 8278, "Ni": 8279, "thm.": 8280, "waving": 8281, "class.": 8282, "folded": 8283, "balls,": 8284, "bookshelf": 8285, "bracele": 8286, "ky.": 8287, "thum": 8288, "water.\"": 8289, "grin": 8290, "engin": 8291, "llie.": 8292, "very.": 8293, "hopes": 8294, "Chirp": 8295, "leak": 8296, "ar'": 8297, "brush.": 8298, "tasty.": 8299, "voice,": 8300, "explored": 8301, "la's": 8302, "cherry": 8303, "Sw": 8304, "Ach": 8305, "uced": 8306, "leed": 8307, "floated": 8308, "tram": 8309, "stop,": 8310, "disappointed": 8311, "lands": 8312, "stones.": 8313, "barked.": 8314, "-t": 8315, "newspaper": 8316, "-up.": 8317, "\"One,": 8318, "themse": 8319, "fixed.": 8320, "angry,": 8321, "lia": 8322, "Tom?\"": 8323, "bookcase": 8324, "stickers": 8325, "\\x99ll": 8326, "fier": 8327, "troubled.": 8328, "proudly": 8329, "Luna.": 8330, "hett": 8331, "friendship.": 8332, "\u2013": 8333, "pan.": 8334, "Gigi": 8335, "\"Dad,": 8336, "uy": 8337, "mom?\"": 8338, "-w": 8339, "vision": 8340, "dear": 8341, "office": 8342, "anyw": 8343, "anywhere.": 8344, "oms.": 8345, "\"m": 8346, "creative.": 8347, "scru": 8348, "toys!": 8349, "quarrel.": 8350, "bird.\"": 8351, "tuna": 8352, "church": 8353, "ckw": 8354, "today?\"": 8355, "shouts.": 8356, "st?": 8357, "ple's": 8358, "nuts.": 8359, "splash.": 8360, "\"re": 8361, "oplan": 8362, "utes,": 8363, "toilet": 8364, "calm.": 8365, "camp": 8366, "minutes,": 8367, "succeed": 8368, "wling": 8369, "trucks": 8370, "Wig": 8371, "cabinet": 8372, "worth": 8373, "served": 8374, "hoop.": 8375, "bbie": 8376, "cited": 8377, "impatient": 8378, "missing": 8379, "ound.": 8380, "delighted": 8381, "fast!\"": 8382, "perfume": 8383, "haircut.": 8384, "Wo": 8385, "Lou": 8386, "oke,": 8387, "safel": 8388, "ar?": 8389, "Kay": 8390, "brow": 8391, "-year": 8392, "strip": 8393, "pop.": 8394, "soak": 8395, "yuck": 8396, "ersist": 8397, "half.": 8398, "carrots.": 8399, "gged": 8400, "in?": 8401, "hospital": 8402, "walked.": 8403, "jewelry": 8404, "iri": 8405, "pastel": 8406, "city": 8407, "clapping": 8408, "bark.": 8409, "junk": 8410, "card.": 8411, "ipm": 8412, "\"Lucy,": 8413, "bother": 8414, "ence.": 8415, "sequ": 8416, "crayon.": 8417, "something,": 8418, "sky!": 8419, "igloo": 8420, "itself.": 8421, "wast": 8422, "player": 8423, "Everything": 8424, "ong.\"": 8425, "escape.": 8426, "teaching": 8427, "memor": 8428, "cake!\"": 8429, "Timmy's": 8430, "row.\"": 8431, "people's": 8432, "san": 8433, "Mom.\"": 8434, "it\u2019s": 8435, "trucks.": 8436, "eggs.": 8437, "ual.": 8438, "actu": 8439, "garage": 8440, "television": 8441, "rail": 8442, "Con": 8443, "worm.": 8444, "inch": 8445, "same.": 8446, "clock.": 8447, "running,": 8448, "have.": 8449, "curios": 8450, "ila": 8451, "nize": 8452, "ffed": 8453, "problems.": 8454, "encourage": 8455, "Sophie": 8456, "ld!": 8457, "recognize": 8458, "Lee": 8459, "ck?\"": 8460, "\"We're": 8461, "working.": 8462, "els.": 8463, "nicely.": 8464, "visi": 8465, "ild.": 8466, "appreci": 8467, "ul!\"": 8468, "fruit,": 8469, "mail.": 8470, "Hoppy": 8471, "\"w": 8472, "ented": 8473, "Mat": 8474, "cakes": 8475, "tomorrow.\"": 8476, "ieve": 8477, "Mom?\"": 8478, "them?\"": 8479, "bouncing": 8480, "Sharing": 8481, "hesit": 8482, "man!\"": 8483, "knob": 8484, "count.": 8485, "discuss": 8486, "ghtly": 8487, "liked.": 8488, "can't.": 8489, "quite": 8490, "Dav": 8491, "iture": 8492, "traff": 8493, "sock.": 8494, "asleep": 8495, "tains": 8496, "Wigg": 8497, "rpl": 8498, "jazz": 8499, "talked.": 8500, "desig": 8501, "whistled": 8502, "twisty": 8503, "before,": 8504, "nw": 8505, "eter.": 8506, "try.\"": 8507, "Ben,\"": 8508, "bag,": 8509, "urge": 8510, "hours": 8511, "snuggled": 8512, "leather": 8513, "Here,": 8514, "jud": 8515, "truck,": 8516, "billboard": 8517, "licks": 8518, "aj": 8519, "meowed": 8520, "orange.": 8521, "Pand": 8522, "surrender": 8523, "station": 8524, "planted": 8525, "emergen": 8526, "re?\"": 8527, "part.": 8528, "boxes.": 8529, "ours.": 8530, "chance": 8531, "z.": 8532, "fish!": 8533, "umbrella.": 8534, "ide?\"": 8535, "desk.": 8536, "strike": 8537, "look,": 8538, "temple": 8539, "Tim,\"": 8540, "persistent.": 8541, "rul": 8542, "mist": 8543, "tour": 8544, "om?": 8545, "se?": 8546, "rys": 8547, "trap.": 8548, "foolish.": 8549, "hugged.": 8550, "fine.": 8551, "et?\"": 8552, "Fa": 8553, "scary,": 8554, "fastest.": 8555, "hive.": 8556, "stil": 8557, "myself": 8558, "th.\"": 8559, "again?\"": 8560, "up!\"": 8561, "there!\"": 8562, "steel": 8563, "dancing.": 8564, "piano.": 8565, "dle.": 8566, "ade,": 8567, "nerv": 8568, "mom!": 8569, "\u2019re": 8570, "hadn": 8571, "win,": 8572, "yawned": 8573, "houses.": 8574, "ddy,": 8575, "swor": 8576, "buried": 8577, "him!": 8578, "\"Yes!\"": 8579, "nei": 8580, "labe": 8581, "gested": 8582, "rain,": 8583, "eady,": 8584, "fy.": 8585, "flying.": 8586, "bossy.": 8587, "mom!\"": 8588, "rise.": 8589, "pretty.\"": 8590, "second": 8591, "Jerry.": 8592, "suggested": 8593, "cool!\"": 8594, "an?": 8595, "Sto": 8596, "toy?\"": 8597, "sse": 8598, "reaches": 8599, "f?": 8600, "edible.": 8601, "harder.": 8602, "waited,": 8603, "aya": 8604, "o'": 8605, "release": 8606, "icle.": 8607, "urbed": 8608, "fai": 8609, "bers.": 8610, "x-ray": 8611, "one?\"": 8612, "ward.": 8613, "stab": 8614, "team.": 8615, "please,": 8616, "le's": 8617, "Instead": 8618, "ect,": 8619, "flute.": 8620, "blueberries": 8621, "piec": 8622, "seed.": 8623, "topu": 8624, "asking.": 8625, "panic.": 8626, "out!\"": 8627, "\\x9cP": 8628, "nest,": 8629, "loud,": 8630, "gras": 8631, "iers": 8632, "courage": 8633, "ribbon": 8634, "popcorn.": 8635, "dreams.": 8636, "stupid.": 8637, "omy.": 8638, "that?": 8639, "Ka": 8640, "uniform": 8641, "sauce.": 8642, "one!": 8643, "\"And": 8644, "doors": 8645, "tionary": 8646, "e.\\xe2": 8647, "tree?\"": 8648, "rother": 8649, "uter.": 8650, "cows,": 8651, "owf": 8652, "hotel": 8653, "ked!": 8654, "computer.": 8655, "rug.": 8656, "medicine.": 8657, "lemon.": 8658, "themselves": 8659, "ce?\"": 8660, "tres": 8661, "quea": 8662, "city.": 8663, "danced,": 8664, "block.": 8665, "d\"": 8666, "inati": 8667, "calls": 8668, "yield": 8669, "Mark.": 8670, "wobb": 8671, "brightly": 8672, "mineral": 8673, "tank.": 8674, "accep": 8675, "today!\"": 8676, "disappeared.": 8677, "dough.": 8678, "isn": 8679, "applau": 8680, "tail,": 8681, "yourself.": 8682, "Harry": 8683, "Mor": 8684, "al:": 8685, "refrigerator": 8686, "g'": 8687, "ting,": 8688, "inking": 8689, "knife.": 8690, "Finny": 8691, "pulling": 8692, "station.": 8693, "trunk.": 8694, "dog.\"": 8695, "sometimes.": 8696, "mystery": 8697, "cake!": 8698, "ders": 8699, "wish.\"": 8700, "question": 8701, "Gu": 8702, "hiding.": 8703, "spoiled.": 8704, "breakfast.": 8705, "vegetable": 8706, "experien": 8707, "pants.": 8708, "talking.": 8709, "ins,": 8710, "tac": 8711, "shes,": 8712, "Ske": 8713, "utter": 8714, "Mic": 8715, "Each": 8716, "you'll": 8717, "blueberry": 8718, "green,": 8719, "ke!\"": 8720, "bake.": 8721, "Mand": 8722, "anxious.": 8723, "country": 8724, "polite.": 8725, "hall.": 8726, "bble": 8727, "house.\"": 8728, "numbers.": 8729, "eaten": 8730, "er\"": 8731, "ryst": 8732, "stiv": 8733, "dried": 8734, "brothers.": 8735, "ppery": 8736, "maze.": 8737, "ayr": 8738, "menu": 8739, "\\x9cG": 8740, "velv": 8741, "during": 8742, "tie.": 8743, "destin": 8744, "Zara": 8745, "thtu": 8746, "sandwiches": 8747, "mt": 8748, "ble.\"": 8749, "Tilly": 8750, "imp.": 8751, "shape.": 8752, "uing": 8753, "Mom,\"": 8754, "sticker": 8755, "burned": 8756, "size": 8757, "trying.": 8758, "Ti": 8759, "independent.": 8760, "se?\"": 8761, "ll's": 8762, "alliga": 8763, "gasped": 8764, "\u2014": 8765, "groc": 8766, "chalk.": 8767, "Lucky": 8768, "n?\"": 8769, "oodby": 8770, "freeze": 8771, "happiness.": 8772, "her!": 8773, "present.": 8774, "back!": 8775, "inkled": 8776, "lets": 8777, "trick.": 8778, "wigg": 8779, "wet,": 8780, "pencil.": 8781, "sweetie.": 8782, "tide": 8783, "driver.": 8784, "zipped": 8785, "fallen": 8786, "space.": 8787, "luggage": 8788, "ete.": 8789, "dictionary": 8790, "note.": 8791, "stay.": 8792, "soil": 8793, "dead.": 8794, "ie's": 8795, "imed,": 8796, "Jane,": 8797, "colou": 8798, "tles": 8799, "endar.": 8800, "rich.": 8801, "onsi": 8802, "conf": 8803, "art,": 8804, "at!\"": 8805, "ls,": 8806, "\"Ro": 8807, "ted!": 8808, "started,": 8809, "under.": 8810, "doll's": 8811, "scale.": 8812, "shopkeeper": 8813, "Gra": 8814, "napp": 8815, "brings": 8816, "birdcage": 8817, "rely": 8818, "bathtub.": 8819, "seeds.": 8820, "amw": 8821, "ton,": 8822, "ts!\"": 8823, "scared.\"": 8824, "wagging": 8825, "butter.": 8826, "barks": 8827, "pted": 8828, "Tom,\"": 8829, "boats.": 8830, "stubborn.": 8831, "surround": 8832, "\"These": 8833, "cave,": 8834, "\"Wait,": 8835, "thumb": 8836, "danced.": 8837, "tag.": 8838, "statue.": 8839, "sorts": 8840, "rules.": 8841, "socc": 8842, "slap": 8843, "Uncle": 8844, "cow,": 8845, "hits": 8846, "dressed": 8847, "cheese,": 8848, "\"Ready,": 8849, "lden": 8850, "frogs": 8851, "pract": 8852, "smoke.": 8853, "is!\"": 8854, "grocery": 8855, "friends!": 8856, "ch?\"": 8857, "do?": 8858, "raig": 8859, "bird?\"": 8860, "vem": 8861, "pant": 8862, "out.\"": 8863, "paste": 8864, "answered": 8865, "logi": 8866, "yellow,": 8867, "ta.": 8868, "factory": 8869, "trains": 8870, "spade": 8871, "erd": 8872, "gazed": 8873, "Fluffy's": 8874, "sadly": 8875, "ory": 8876, "Rex.": 8877, "task": 8878, "onc": 8879, "eat.\"": 8880, "ree-": 8881, "dessert": 8882, "\"f": 8883, "sly": 8884, "suit.": 8885, "microscope": 8886, "ny!": 8887, "resta": 8888, "onwar": 8889, "ceeded": 8890, "wolf.": 8891, "sits": 8892, "freezer": 8893, "restless.": 8894, "seeing": 8895, "interest": 8896, "pinched": 8897, "tiny,": 8898, "some?\"": 8899, "yogurt.": 8900, "\\x9cB": 8901, "want.\"": 8902, "ers!\"": 8903, "fireplace.": 8904, "volcano.": 8905, "asil": 8906, "license": 8907, "ur.": 8908, "Jill.": 8909, "hn,": 8910, "chimney.": 8911, "radio.": 8912, "prints": 8913, "hic": 8914, "nlo": 8915, "box.\"": 8916, "catching": 8917, "shelter": 8918, "still.": 8919, "raised": 8920, "carpet.": 8921, "iol": 8922, "bin.": 8923, "ival": 8924, "watered": 8925, "tle,": 8926, "useful.": 8927, "wine": 8928, "-d": 8929, "Bug": 8930, "great,": 8931, "matches": 8932, "loudly": 8933, "chewed": 8934, "lies.": 8935, "Elly": 8936, "porch.": 8937, "Hop": 8938, "washing": 8939, "box!\"": 8940, "there!": 8941, "shocked.": 8942, "cartoon": 8943, "maze": 8944, "shined": 8945, "climbs": 8946, "ry?\"": 8947, "ventur": 8948, "irled": 8949, "microscope.": 8950, "clever.": 8951, "scratch": 8952, "Millie": 8953, "receive": 8954, "\u201cT": 8955, "hurting": 8956, "Sandy": 8957, "bunny,": 8958, "Bounce": 8959, "melt.": 8960, "Las": 8961, "show,": 8962, "Pip": 8963, "much.\"": 8964, "oll": 8965, "tto": 8966, "stomach": 8967, "thirsty": 8968, "fingers": 8969, "shells.": 8970, "thy,": 8971, "\"Will": 8972, "pumpkin.": 8973, "round,": 8974, "Bobb": 8975, "wim": 8976, "white.": 8977, "slowly.": 8978, "hant": 8979, "sted.": 8980, "word.": 8981, "Finn": 8982, "o!\"": 8983, "nap,": 8984, "rained": 8985, "honest.": 8986, "river,": 8987, "herri": 8988, "birdca": 8989, "ke?": 8990, "bigger!": 8991, "James": 8992, "Baby": 8993, "ety": 8994, "port,": 8995, "increase": 8996, "uis": 8997, "banana.": 8998, "meant.": 8999, "yed.": 9000, "solved": 9001, "cles.": 9002, "flour,": 9003, "insis": 9004, "good!\"": 9005, "pretty!": 9006, "poon.": 9007, "share.\"": 9008, "sing,": 9009, "accepted": 9010, "arch": 9011, "r\"": 9012, "ent!": 9013, "hammer.": 9014, "Penny": 9015, "\"Because": 9016, "unlocked": 9017, "fashi": 9018, "street,": 9019, "OK?\"": 9020, "dared": 9021, "jogged": 9022, "\u201cIt\u2019s": 9023, "lucky.": 9024, "Spark": 9025, "\"b": 9026, "attic": 9027, "hurricane": 9028, "scolded": 9029, "scur": 9030, "painting.": 9031, "thday,": 9032, "adventurous.": 9033, "member,": 9034, "mama": 9035, "park.\"": 9036, "yummy!": 9037, "birthday,": 9038, "ance,": 9039, "ful,\"": 9040, "Di": 9041, "Sure": 9042, "ion,": 9043, "plays": 9044, "pole.": 9045, "four,": 9046, "exciting.": 9047, "se's": 9048, "manage": 9049, "else.\"": 9050, "agg": 9051, "ane,": 9052, "lunch,": 9053, "Jane's": 9054, "rab": 9055, "colors,": 9056, "is.\"": 9057, "her.\"": 9058, "truth": 9059, "mill.": 9060, "sneezed": 9061, "pa.": 9062, "Later": 9063, "crib": 9064, "\"No!": 9065, "comm": 9066, "little,": 9067, "ash!": 9068, "pasta.": 9069, "Papa": 9070, "deer.": 9071, "Ever": 9072, "tras": 9073, "sugar,": 9074, "ties": 9075, "mistakes.": 9076, "parade.": 9077, "ess!": 9078, "Tom.\"": 9079, "\u2019ll": 9080, "fingers.": 9081, "Bunny.": 9082, "generous.": 9083, "creek.": 9084, "ths.": 9085, "luxur": 9086, "These": 9087, "try,": 9088, "ahead": 9089, "Ad": 9090, "k-": 9091, "grumpy.": 9092, "room.\"": 9093, "crack.": 9094, "bear's": 9095, "feather.": 9096, "etheart": 9097, "ruined.": 9098, "borh": 9099, "trump": 9100, "fastest": 9101, "do!\"": 9102, "smelly.": 9103, "erne": 9104, "zl": 9105, "First,": 9106, "ummy": 9107, "coins.": 9108, "pretend.": 9109, "restaurant": 9110, "well,": 9111, "Kate": 9112, "safely.": 9113, "nce": 9114, "coats": 9115, "hol": 9116, "crum": 9117, "ourn": 9118, "orted": 9119, "trumpet.": 9120, "come!": 9121, "uag": 9122, "asket": 9123, "glass.": 9124, "violin.": 9125, "ocero": 9126, "ter,\"": 9127, "welcomed": 9128, "jelly.": 9129, "cliff": 9130, "network": 9131, "blowing": 9132, "\"Hello!": 9133, "toile": 9134, "eve": 9135, "write.": 9136, "him.\"": 9137, "wiz": 9138, "div": 9139, "scattered": 9140, "hau": 9141, "Cr": 9142, "histo": 9143, "bug!": 9144, "am!\"": 9145, "Both": 9146, "wheat.": 9147, "closed.": 9148, "hog": 9149, "dow.": 9150, "theater": 9151, "ceiling.": 9152, "ram": 9153, "hai": 9154, "come!\"": 9155, "wheels.": 9156, "lower.": 9157, "..\"": 9158, "respon": 9159, "orn,": 9160, "heel": 9161, "yacht.": 9162, "meadow.": 9163, "Chirpy.": 9164, "edt": 9165, "Cat.": 9166, "broccoli.": 9167, "down.\"": 9168, "remember,": 9169, "palm": 9170, "trash.": 9171, "shoes,": 9172, "Te": 9173, "fort.": 9174, "ppy,": 9175, "hadn't": 9176, "furniture": 9177, "tightly.": 9178, "start.": 9179, "Grandma.": 9180, "sionate.": 9181, "air,": 9182, "strong.\"": 9183, "stuffed": 9184, "-se": 9185, "ashes": 9186, "filthy.": 9187, "bak": 9188, "ide.\"": 9189, "andin": 9190, "ruin": 9191, "shrin": 9192, "hair,": 9193, "spaghetti.": 9194, "swoo": 9195, "flour": 9196, "hotel.": 9197, "unhappy.": 9198, "\"Hey": 9199, "ise.\"": 9200, "dance,": 9201, "'ve": 9202, "s.\\xe2": 9203, "cats.": 9204, "fireplace": 9205, "dh": 9206, "dinosaur.": 9207, "roble": 9208, "library.": 9209, "nothing.": 9210, "wf": 9211, "antic": 9212, "Uni": 9213, "hedge.": 9214, "wer.": 9215, "good!": 9216, "talk,": 9217, "ans.": 9218, "winter": 9219, "pepper.": 9220, "successful.": 9221, "envious.": 9222, "loe": 9223, "go-": 9224, "fly!\"": 9225, "alone,": 9226, "course!": 9227, "any.": 9228, "uat": 9229, "that.\"": 9230, "ugly.": 9231, "bouncy": 9232, "ther's": 9233, "pet.": 9234, "song,": 9235, "Sil": 9236, "ches,": 9237, "jokes.": 9238, "lake,": 9239, "butterfly!": 9240, "drain.": 9241, "bicycle.": 9242, "prise": 9243, "creek": 9244, "eave": 9245, "faster,": 9246, "ry:": 9247, "meow": 9248, "incess": 9249, "delight": 9250, "drawer.": 9251, "bracelet.": 9252, "spin.": 9253, "utes": 9254, "ver.\"": 9255, "pipe.": 9256, "plates": 9257, "dent": 9258, "\"Not": 9259, "light,": 9260, "excitedly": 9261, "cont": 9262, "am!": 9263, "clothe": 9264, "box!": 9265, "Ve": 9266, "can,": 9267, "mask.": 9268, "smaller.": 9269, "notebook.": 9270, "jog.": 9271, "lollipop.": 9272, "fron": 9273, "with,": 9274, "lined": 9275, "yet": 9276, "frowned.": 9277, "cot": 9278, "writing": 9279, "golden": 9280, "journal.": 9281, "butterfly,": 9282, "jokes": 9283, "uty": 9284, "i!\"": 9285, "lion,": 9286, "\"Wait": 9287, "nature.": 9288, "lawn.": 9289, "cupboard.": 9290, "se.\"": 9291, "structure": 9292, "ashli": 9293, "\"v": 9294, "mom,\"": 9295, "Timmy,": 9296, "cei": 9297, "blink": 9298, "smell.": 9299, "factory.": 9300, "Uh": 9301, "lab": 9302, "iate": 9303, "story:": 9304, "ns,": 9305, "ong?\"": 9306, "ishwas": 9307, "goal.": 9308, "tightly": 9309, "about.": 9310, "wandered": 9311, "gasped.": 9312, "tos": 9313, "club.": 9314, "ping.": 9315, "hats.": 9316, "sight.": 9317, "sizes.": 9318, "rooms": 9319, "mailman": 9320, "eze.": 9321, "castles": 9322, "OK,": 9323, "flashlight.": 9324, "ngth.": 9325, "snapped": 9326, "palace.": 9327, "Diz": 9328, "un,": 9329, "Sha": 9330, "tang": 9331, "eeper": 9332, "daisy": 9333, "nif": 9334, "attached": 9335, "fan.": 9336, "floating": 9337, "surprises.": 9338, "sandwi": 9339, "sneeze.": 9340, "\u201cY": 9341, "people,": 9342, "try?\"": 9343, "pig.": 9344, "pered,": 9345, "slip": 9346, "racing": 9347, "fly.\"": 9348, "ond.": 9349, "advice": 9350, "scooter.": 9351, "n:": 9352, "eath": 9353, "puddles": 9354, "pages": 9355, "twirled": 9356, "chy": 9357, "fast.\"": 9358, "poison": 9359, "see.\"": 9360, "asc": 9361, "ens,": 9362, "race!": 9363, "yelled.": 9364, "bitter.": 9365, "cactus.": 9366, "wels": 9367, "ight,": 9368, "pushed,": 9369, "Tony": 9370, "bang": 9371, "asm": 9372, "cliff.": 9373, "sible": 9374, "sev": 9375, "\"Stop!": 9376, "appear": 9377, "ence,": 9378, "Woo": 9379, "ury": 9380, "auc": 9381, "whispered,": 9382, "nature": 9383, "velvet": 9384, "ty!": 9385, "cutting": 9386, "Dad,": 9387, "encouraged": 9388, "liab": 9389, "ant!\"": 9390, "prayed": 9391, "cyc": 9392, "selling": 9393, "obb": 9394, "urged": 9395, "motorcycle.": 9396, "size.": 9397, "dirty,": 9398, "breaks": 9399, "walls.": 9400, "jacket.": 9401, "deeper": 9402, "swamp.": 9403, "grapes.": 9404, "sure.": 9405, "immed": 9406, "paused": 9407, "youn": 9408, "argue.": 9409, "toed": 9410, "sunset": 9411, "melon.": 9412, "funny,": 9413, "alive": 9414, "bad.\"": 9415, "great.": 9416, "Clara": 9417, "gum.": 9418, "heads.": 9419, "visited": 9420, "shadow.": 9421, "oursel": 9422, "brated": 9423, "member": 9424, "planes": 9425, "exac": 9426, "outside.\"": 9427, "window,": 9428, "resto": 9429, "three.": 9430, "temple.": 9431, "reveal": 9432, "ht.": 9433, "leph": 9434, "blackboard.": 9435, "festival": 9436, "shoulder.": 9437, "sts.": 9438, "us,\"": 9439, "sert.": 9440, "de,": 9441, "celebrated": 9442, "quas": 9443, "bananas": 9444, "mine.\"": 9445, "drawings.": 9446, "sir": 9447, "windows": 9448, "dessert.": 9449, "Ruby": 9450, "celery.": 9451, "bol.": 9452, "Doggy,": 9453, "shop,": 9454, "piece.": 9455, "belt.": 9456, "beauty": 9457, "Momo.": 9458, "pt.": 9459, "Snowy": 9460, "advice.": 9461, "lights.": 9462, "mined.": 9463, "ilen": 9464, "\u2018": 9465, "comfortable.": 9466, "or!": 9467, "Ar": 9468, "disgusting.": 9469, "tive.": 9470, "t:": 9471, "is?\"": 9472, "Maggie": 9473, "reef.": 9474, "sofa.": 9475, "rio": 9476, "ree,": 9477, "thread.": 9478, "Buddy,": 9479, "ching.": 9480, "Ollie.": 9481, "fum": 9482, "taste.": 9483, "sunflower.": 9484, "family.\"": 9485, "butterflies": 9486, "hers.": 9487, "caring": 9488, "kicking": 9489, "ushe": 9490, "uey": 9491, "meeting": 9492, "es?": 9493, "ld!\"": 9494, "tea.": 9495, "match.": 9496, "listened.": 9497, "chimney": 9498, "\u201cHe": 9499, "mine!": 9500, "printed": 9501, "shivering": 9502, "King": 9503, "measured": 9504, "ignorant.": 9505, "juic": 9506, "yummy!\"": 9507, "baking": 9508, "shot": 9509, "noisy.": 9510, "Bear.": 9511, "et?": 9512, "cocoa.": 9513, "sitt": 9514, "power.": 9515, "brighter": 9516, "relu": 9517, "sad.\"": 9518, "Fifi": 9519, "baked": 9520, "forgotten": 9521, "isn't": 9522, "rice.": 9523, "hank": 9524, "Din": 9525, "\u201cWe": 9526, "b!\"": 9527, "danger.": 9528, "rap": 9529, "tower,": 9530, "stand.": 9531, "growled": 9532, "massage": 9533, "toast.": 9534, "diary.": 9535, "proj": 9536, "giggle.": 9537, "hungry.\"": 9538, "Look,": 9539, "slippery.": 9540, "Of": 9541, "uppl": 9542, "handle.": 9543, "feelings.": 9544, "ist,": 9545, "astle": 9546, "olly,": 9547, "respectful": 9548, "poppy": 9549, "week.": 9550, "olive": 9551, "invest": 9552, "igate.": 9553, "igate": 9554, "rust": 9555, "twink": 9556, "naught": 9557, "see!\"": 9558, "best,": 9559, "shower": 9560, "movie.": 9561, "view.": 9562, "why.": 9563, "jeep.": 9564, "Bluey": 9565, "impressed": 9566, "sour.": 9567, "tall,": 9568, "received": 9569, "cube.": 9570, "hh": 9571, "win!\"": 9572, "bo's": 9573, "cushi": 9574, "andle": 9575, "Follow": 9576, "enge": 9577, "ayer": 9578, "rose.": 9579, "others.\"": 9580, "far,": 9581, "suppo": 9582, "board,": 9583, "cookies,": 9584, "simple": 9585, "hook.": 9586, "immedi": 9587, "palace": 9588, "Squeaky": 9589, "Bob!": 9590, "Its": 9591, "hurried": 9592, "What's": 9593, "essa": 9594, "pink.": 9595, "square.": 9596, "Mou": 9597, "vine.": 9598, "grill.": 9599, "game!\"": 9600, "shining.": 9601, "es,\"": 9602, "Pinky": 9603, "torna": 9604, "seag": 9605, "different,": 9606, "erfor": 9607, "cting": 9608, "careful!\"": 9609, "here?": 9610, "fish!\"": 9611, "chamber": 9612, "duc": 9613, "collected": 9614, "ed;": 9615, "Slo": 9616, "cut.": 9617, "frig": 9618, "ake,": 9619, "prince.": 9620, "daughter.": 9621, "clap.": 9622, "ird,": 9623, "buttons.": 9624, "homes": 9625, "ginal.": 9626, "forth,": 9627, "lax": 9628, "squash.": 9629, "butterflies.": 9630, "Spr": 9631, "clown.": 9632, "introd": 9633, "melt": 9634, "Qua": 9635, "\\x9cA": 9636, "rewor": 9637, "eding.": 9638, "broken,": 9639, "Mittens": 9640, "ghter,": 9641, "bowed": 9642, "urn.": 9643, "brain": 9644, "shovel": 9645, "rack": 9646, "o\"": 9647, "a.\"": 9648, "socks": 9649, "go?\"": 9650, "en?": 9651, "van.": 9652, "noon.": 9653, "jug.": 9654, "rels": 9655, "ingredients": 9656, "more.\"": 9657, "aced": 9658, "isit": 9659, "\"Al": 9660, "''": 9661, "ddled": 9662, "here!": 9663, "ice-cream.": 9664, "purse.": 9665, "nie.": 9666, "Bon": 9667, "Min": 9668, "are,": 9669, "den.": 9670, "eye.": 9671, "owl,": 9672, "shouldn't": 9673, "impo": 9674, "church.": 9675, "oxygen": 9676, "arrow.": 9677, "jail": 9678, "sliding": 9679, "ne,": 9680, "tionary.": 9681, "acted": 9682, "otto": 9683, "angu": 9684, "deep.": 9685, "herself,": 9686, "etl": 9687, "tube.": 9688, "rooms.": 9689, "kisses": 9690, "wrong?\"": 9691, "stop!\"": 9692, "candle.": 9693, "barrel.": 9694, "cap.": 9695, "erw": 9696, "do!": 9697, "\"Amy,": 9698, "bird,\"": 9699, "veterinar": 9700, "world,": 9701, "on's": 9702, "warm.\"": 9703, "\"Next": 9704, "drive.": 9705, "milk,": 9706, "imi": 9707, "classroom.": 9708, "happening": 9709, "kir": 9710, "t,\"": 9711, "Bobo's": 9712, "boo-": 9713, "Sof": 9714, "dish.": 9715, "helper": 9716, "an!\"": 9717, "fortunately,": 9718, "-p": 9719, "orld": 9720, "planet.": 9721, "l-": 9722, "headed": 9723, "ck-": 9724, "prou": 9725, "cad": 9726, "eggs,": 9727, "supposed": 9728, "honey,": 9729, "cereal.": 9730, "brown.": 9731, "rock!\"": 9732, "zed.": 9733, "branch,": 9734, "crib.": 9735, "captain": 9736, "k'": 9737, "wool.": 9738, "life!": 9739, "makeup.": 9740, "oasis.": 9741, "dictionary.": 9742, "kneeled": 9743, "riang": 9744, "way.\"": 9745, "ppi": 9746, "onse": 9747, "happi": 9748, "lived.": 9749, "p-": 9750, "dangerous.\"": 9751, "gue": 9752, "meat.": 9753, "ure.\"": 9754, "ital,": 9755, "etball.": 9756, "lions,": 9757, "bites": 9758, "unr": 9759, "says:": 9760, "Mary.": 9761, "below.": 9762, "bike,": 9763, "basketball.": 9764, "\"Sara,": 9765, "gem.": 9766, "remained": 9767, "further": 9768, "harb": 9769, "yl": 9770, "rest.\"": 9771, "Hur": 9772, "diamond.": 9773, "laughter": 9774, "etly": 9775, "football.": 9776, "toys!\"": 9777, "harbor.": 9778, "roj": 9779, "mushroom.": 9780, "mall": 9781, "bo,": 9782, "zoo,": 9783, "thering": 9784, "uded": 9785, "crystal.": 9786, "houses,": 9787, "person.": 9788, "Mom's": 9789, "suffer": 9790, "ctantly": 9791, "sterday,": 9792, "finis": 9793, "circles": 9794, "que.": 9795, "ipment": 9796, "laid": 9797, "Did": 9798, "respe": 9799, "microphone.": 9800, "television.": 9801, "equipment": 9802, "doors.": 9803, "John,": 9804, "fbo": 9805, "favorit": 9806, "trophy.": 9807, "aste": 9808, "tunne": 9809, "practic": 9810, "museum.": 9811, "ffy!": 9812, "duck,": 9813, "stable": 9814, "ay.\"": 9815, "serious.": 9816, "Zigzag": 9817, "mum,": 9818, "mato": 9819, "live.": 9820, "',": 9821, "deep,": 9822, "pigs,": 9823, "Wit": 9824, "\"Mr.": 9825, "purple.": 9826, "Sl": 9827, "nah": 9828, "ple.\"": 9829, "moves": 9830, "Froggy": 9831, "cauliflower.": 9832, "gym.": 9833, "fearful.": 9834, "flying,": 9835, "reef": 9836, "noise,": 9837, "ic!\"": 9838, "glove.": 9839, "htr": 9840, "pt,": 9841, "mug.": 9842, "invitation": 9843, "loti": 9844, "watches": 9845, "Lar": 9846, "\"Mum": 9847, "ow?\"": 9848, "soa": 9849, "goodbye,": 9850, "costume.": 9851, "Frank": 9852, "he'd": 9853, "ley,": 9854, "cent": 9855, "understand,": 9856, "jumped.": 9857, "Qui": 9858, "Doggy.": 9859, "best.\"": 9860, "sica": 9861, "together!": 9862, "funn": 9863, "comb.": 9864, "Ac": 9865, "heal.": 9866, "glu": 9867, "straight": 9868, "stars,": 9869, "eady": 9870, "evening,": 9871, "agi": 9872, "Sand": 9873, "ifor": 9874, "spa": 9875, "andm": 9876, "chip": 9877, "easily.": 9878, "princes": 9879, "igloo.": 9880, "ranch.": 9881, "Wally": 9882, "?\",": 9883, "tiv": 9884, "cat.\"": 9885, "dress-up": 9886, "magnet.": 9887, "ished!": 9888, "special.\"": 9889, "eig": 9890, "quen": 9891, "friend!": 9892, "flap": 9893, "Boo": 9894, "rhythm": 9895, "urs": 9896, "difficult.": 9897, "boys.": 9898, "delici": 9899, "look!\"": 9900, "porch": 9901, "Tiny.": 9902, "\"he": 9903, "flood": 9904, "esp": 9905, "ug.": 9906, "\"d": 9907, "them!": 9908, "tucked": 9909, "laundry.": 9910, "wall,": 9911, "However,": 9912, "andd": 9913, "lawn": 9914, "flav": 9915, "eagerly": 9916, "rod.": 9917, "osit": 9918, "Owl": 9919, "fairy!": 9920, "sprink": 9921, "wallet.": 9922, "lab.": 9923, "story,": 9924, "ides.": 9925, "heavy,": 9926, "for?\"": 9927, "teasing": 9928, "ee.": 9929, "atul": 9930, "Someone": 9931, "engine.": 9932, "Ap": 9933, "frowned": 9934, "rels.": 9935, "Tre": 9936, "Molly.": 9937, "dne": 9938, "Gog": 9939, "soil.": 9940, "Wiggly": 9941, "illbo": 9942, "isfi": 9943, "dishes": 9944, "steak.": 9945, "forward,": 9946, "en?\"": 9947, "inside!\"": 9948, "eraser.": 9949, "sweater.": 9950, "le,\"": 9951, "bags.": 9952, "chairs": 9953, "\"Goodbye,": 9954, "Ann.": 9955, "shiver.": 9956, "ter's": 9957, "sailing": 9958, "very,": 9959, "opened!": 9960, "climbed,": 9961, "parts": 9962, "leave,": 9963, "candy,": 9964, "fisher": 9965, "weight": 9966, "frog!": 9967, "Dr.": 9968, "tunate": 9969, "our.": 9970, "before!": 9971, "jail.": 9972, "Star": 9973, "\"c": 9974, "dem": 9975, "anks": 9976, "K,\"": 9977, "\"OK,\"": 9978, "mean,": 9979, "pirates": 9980, "stuff.": 9981, "gato": 9982, "freezer.": 9983, "number.": 9984, "age,": 9985, "ep.\"": 9986, "complain.": 9987, "thunder.": 9988, "go!": 9989, "ish,": 9990, "snail": 9991, "squirrels": 9992, "telephone.": 9993, "polit": 9994, "shark.": 9995, "minutes": 9996, "shrugged": 9997, "Together": 9998, "curtain.": 9999, "ant's": 10000, "Tur": 10001, "re,\"": 10002, "relax.": 10003, "dishwasher.": 10004, "tools.": 10005, "tree's": 10006, "airport.": 10007, "exha": 10008, "helmet.": 10009, "language.": 10010, "ectl": 10011, "sb": 10012, "awa": 10013, "respectful.": 10014, "suns": 10015, "terw": 10016, "key!": 10017, "giant.": 10018, "Goo": 10019, "whale.": 10020, "help!": 10021, "angle.": 10022, "tray.": 10023, "fun,\"": 10024, "created": 10025, "alone.\"": 10026, "og,": 10027, "itch.": 10028, "chickens.": 10029, "jewel.": 10030, "chicken.": 10031, "sting,": 10032, "jumping.": 10033, "kindne": 10034, "after,": 10035, "won.": 10036, "wk": 10037, "digging": 10038, "next.": 10039, "drain": 10040, "envelope.": 10041, "helper.": 10042, "them!\"": 10043, "outh": 10044, "chat": 10045, "tering": 10046, "sorting": 10047, "medal.": 10048, "ety.": 10049, "\"Well": 10050, "oasis": 10051, "restaurant.": 10052, "toilet.": 10053, "fab": 10054, "fork.": 10055, "accom": 10056, "obedient.": 10057, "fear.": 10058, "ordered": 10059, "foc": 10060, "tor,": 10061, "mm,": 10062, "ibb": 10063, "tire.": 10064, "toes.": 10065, "ic.\"": 10066, "ll!\"": 10067, "met.": 10068, "neckla": 10069, "d:": 10070, "offer": 10071, "cauti": 10072, "excitement": 10073, "\"Sh": 10074, "mes.": 10075, "gerato": 10076, "fant": 10077, "time!": 10078, "kindness.": 10079, "mattress.": 10080, "\"Yea": 10081, "ames": 10082, "adventure,": 10083, "stable.": 10084, "immediately": 10085, "argue": 10086, "raft.": 10087, "him?\"": 10088, "lry.": 10089, "jewelry.": 10090, "eam": 10091, "armchair.": 10092, "kayak.": 10093, "now!": 10094, "lazy.": 10095, "cherries.": 10096, "iring": 10097, "blin": 10098, "knot.": 10099, "hael": 10100, "ly?\"": 10101, "am.\"": 10102, "soup,": 10103, "weep.": 10104, "lemonade": 10105, "ciate": 10106, "clean.\"": 10107, "flexible.": 10108, "appreciate": 10109, "robb": 10110, "ups.": 10111, "wing,": 10112, "cheek.": 10113, "re'": 10114, "lick": 10115, "since": 10116, "i's": 10117, "andmo": 10118, "math.": 10119, "airport": 10120, "importance": 10121, "ter?\"": 10122, "underne": 10123, "Tuna": 10124, "ake!": 10125, "mak": 10126, "caut": 10127, "Bar": 10128, "ers!": 10129, "my?\"": 10130, "ethear": 10131, "spring.": 10132, "sorted": 10133, "wise.": 10134, "worried,": 10135, "tled,": 10136, "goal": 10137, "ival.": 10138, "onge": 10139, "less,": 10140, "dog?\"": 10141, "istur": 10142, "slides.": 10143, "luxury": 10144, "oring.": 10145, "settled": 10146, "crunch": 10147, "lri": 10148, "slapped": 10149, "ok?": 10150, "tom.": 10151, "xcuse": 10152, "ention": 10153, "bite,": 10154, "a?\"": 10155, "nose,": 10156, "grum": 10157, "jet.": 10158, "leaf,": 10159, "attractive.": 10160, "softly.": 10161, "cake.\"": 10162, "witch.": 10163, "road,": 10164, "eer": 10165, "vest.": 10166, "sticky": 10167, "memory": 10168, "kw": 10169, "what?": 10170, "rested": 10171, "bookshelf.": 10172, "stig": 10173, "tch": 10174, "'t,": 10175, "bottom.": 10176, "\"Mam": 10177, "billboard.": 10178, "task.": 10179, "score": 10180, "at.\"": 10181, "urre": 10182, "Amy!": 10183, "ures,": 10184, "job!\"": 10185, "Unfor": 10186, "pid": 10187, "pastry.": 10188, "fruits,": 10189, "prink": 10190, "struc": 10191, "\\x9d,": 10192, "Unfortunately,": 10193, "squirrels.": 10194, "happened,": 10195, "zero": 10196, "accident.": 10197, "sharp.": 10198, "tomato.": 10199, "orse": 10200, "free!": 10201, "K!\"": 10202, "ge!\"": 10203, "challen": 10204, "dogs,": 10205, "marble.": 10206, "snat": 10207, "Benny.": 10208, "\"Little": 10209, "swamp": 10210, "imy": 10211, "race!\"": 10212, "Bobo,": 10213, "fragile.": 10214, "peaceful.": 10215, "Ben?\"": 10216, "triangle.": 10217, "ugge": 10218, "keeps": 10219, "intelligent.": 10220, "ks,": 10221, "I\\xe2\\x80": 10222, "weapon": 10223, "fast!": 10224, "band.": 10225, "cabinet.": 10226, "Suzy": 10227, "bles,": 10228, "ained.": 10229, "tap.": 10230, "sandcastle": 10231, "bbing": 10232, "ys,": 10233, "bread,": 10234, "ar.\"": 10235, "teacher,": 10236, "festival.": 10237, "words,": 10238, "bananas.": 10239, "a-": 10240, "cows": 10241, "onw": 10242, "l\"": 10243, "folder.": 10244, "God": 10245, "Ducky.": 10246, "ander": 10247, "anchor.": 10248, "ots,": 10249, "sunglasses.": 10250, "creatures": 10251, "sheet.": 10252, "breaking": 10253, "choo!\"": 10254, "stadium.": 10255, "?!": 10256, "pig,": 10257, "novel.": 10258, "stadium": 10259, "request": 10260, "esa": 10261, "ather": 10262, "Something": 10263, "Thom": 10264, "see?\"": 10265, "mer.": 10266, "firem": 10267, "sunrise": 10268, "choice.": 10269, "dinner.\"": 10270, "boot.": 10271, "bookcase.": 10272, "anything,": 10273, "delicious!": 10274, "price": 10275, "hut.": 10276, "Bobby.": 10277, "wave.": 10278, "child.": 10279, "guessed": 10280, "froz": 10281, "ster,": 10282, "pto": 10283, "owned": 10284, "upset,": 10285, "curled": 10286, "wire.": 10287, "camp.": 10288, "sunset.": 10289, "studied": 10290, "ds!": 10291, "strength": 10292, "rehe": 10293, "balance.": 10294, "swal": 10295, "path,": 10296, "thing!\"": 10297, "behave.": 10298, "downst": 10299, "ully": 10300, "open,": 10301, "fog.": 10302, "zen": 10303, "ached": 10304, "in's": 10305, "careful!": 10306, "pages.": 10307, "Rosie": 10308, "delight.": 10309, "edg": 10310, "turning": 10311, "Mad": 10312, "march.": 10313, "coat,": 10314, "think.": 10315, "tbr": 10316, "sticks,": 10317, "trapped": 10318, "tracks.": 10319, "drinking": 10320, "time!\"": 10321, "rough.": 10322, "Toto": 10323, "une.": 10324, "oo,": 10325, "this.\"": 10326, "bringing": 10327, "cate.": 10328, "sage,": 10329, "mess.\"": 10330, "history": 10331, "pe!": 10332, "happens.": 10333, "Help!\"": 10334, "wisdom": 10335, "ueb": 10336, "candles": 10337, "\"See": 10338, "baseball.": 10339, "someone.": 10340, "blueberries.": 10341, "cushion.": 10342, "ator,": 10343, "nation": 10344, "\u201cThat\u2019s": 10345, "clumsy.": 10346, "thing!": 10347, "yse": 10348, "Na": 10349, "mention": 10350, "deaf.": 10351, "p\"": 10352, "erday": 10353, "avocado.": 10354, "otec": 10355, "ssing": 10356, "touch.": 10357, "ment,": 10358, "harsh.": 10359, "slam": 10360, "ingly": 10361, "hurts!\"": 10362, "\"OK!\"": 10363, "Cat,": 10364, "edin": 10365, "\"I'll": 10366, "accompl": 10367, "wooden": 10368, "wings,": 10369, "exam.": 10370, "please!": 10371, "m.\"": 10372, "happier.": 10373, "isp": 10374, "bounce.": 10375, "meant,": 10376, "claws.": 10377, "Pin": 10378, "ortun": 10379, "melted": 10380, "ct.": 10381, "ging,": 10382, "Win": 10383, "praised": 10384, "salt.": 10385, "loop.": 10386, "mma": 10387, "to!\"": 10388, "polis": 10389, "arin": 10390, "content": 10391, "touching": 10392, "hated": 10393, "ects": 10394, "bears": 10395, "two.": 10396, "sweet,": 10397, "bbled": 10398, "rowed": 10399, "us!": 10400, "insec": 10401, "aspo": 10402, "spear.": 10403, "bump": 10404, "quiet,": 10405, "Smith": 10406, "rif": 10407, "sibl": 10408, "scratched": 10409, "winner": 10410, "steps.": 10411, "bees.": 10412, "yester": 10413, "\"Fin": 10414, "llo!\"": 10415, "vanish": 10416, "-e": 10417, "greedy": 10418, "holiday": 10419, "approac": 10420, "blood": 10421, "amazing!": 10422, "sang,": 10423, "alert.": 10424, "mentioned": 10425, "to!": 10426, "erved": 10427, "preci": 10428, "moved.": 10429, "Pre": 10430, "parr": 10431, "anno": 10432, "own,": 10433, "button,": 10434, "pistol.": 10435, "language": 10436, "leo": 10437, "marching": 10438, "tiger.": 10439, "Next,": 10440, "pok": 10441, "soared": 10442, "bugs,": 10443, "Bunny,": 10444, "bananas,": 10445, "jungle,": 10446, "Sophi": 10447, "none": 10448, "corn,": 10449, "better!\"": 10450, "Ash": 10451, "bug!\"": 10452, "vided": 10453, "Stop": 10454, "deaf,": 10455, "radish.": 10456, "destroyed": 10457, "or.\"": 10458, "ckag": 10459, "andf": 10460, "goat.": 10461, "elevator.": 10462, "sters": 10463, "Jas": 10464, "ents,": 10465, "cras": 10466, "perfume.": 10467, "irm": 10468, "remo": 10469, "taller.": 10470, "impressive.": 10471, "Sarah's": 10472, "item": 10473, "fes.": 10474, "strawberries": 10475, "h\"": 10476, "ood,": 10477, "aud.": 10478, "reliable.": 10479, "stom": 10480, "lid.": 10481, "bud": 10482, "amazing!\"": 10483, "pkins": 10484, "terrible.": 10485, "automobile.": 10486, "saying,": 10487, "anded": 10488, "badly.": 10489, "insisted": 10490, "attention": 10491, "Ry": 10492, "big!": 10493, "g\"": 10494, "ver!\"": 10495, "both.": 10496, "twin": 10497, "ambulance.": 10498, "can.\"": 10499, "bravely": 10500, "per.": 10501, "upstairs": 10502, "oal": 10503, "Happy": 10504, "stitch": 10505, "la!": 10506, "you\".": 10507, "ver!": 10508, "enjoy.": 10509, "wreck": 10510, "apart.": 10511, "tremble.": 10512, "dogg": 10513, "papers.": 10514, "wide.": 10515, "dear.": 10516, "ssss": 10517, "remembers": 10518, "anted": 10519, "bath,": 10520, "hus": 10521, "pter.": 10522, "exploring.": 10523, "everyone,": 10524, "helicopter.": 10525, "mam": 10526, "Rol": 10527, "sible.": 10528, "scaring": 10529, "appoin": 10530, "roll.": 10531, "chamber.": 10532, ",\u201d": 10533, "Tommy's": 10534, "Behind": 10535, "dais": 10536, "ies.\"": 10537, "easier": 10538, "waits": 10539, "aeroplane.": 10540, "\"Look!": 10541, "circles.": 10542, "happened?\"": 10543, "normal.": 10544, "sings": 10545, "market,": 10546, "monkeys": 10547, "ates.": 10548, "\u201cThank": 10549, "ious,": 10550, "safari": 10551, "ly?": 10552, "\"Kitty,": 10553, "swan.": 10554, "ized,": 10555, "Si": 10556, "\"She": 10557, "ty!\"": 10558, "torn": 10559, "high!\"": 10560, "yours.\"": 10561, "Andy.": 10562, "We're": 10563, "Pepper": 10564, "Always": 10565, "kul": 10566, "wardrobe.": 10567, "coal.": 10568, "uts.": 10569, "cem": 10570, "beans": 10571, "loon,": 10572, "marbles": 10573, "celebrate.": 10574, "balloons,": 10575, "xer.": 10576, "stirring": 10577, "operation": 10578, "\"Hello!\"": 10579, "going,": 10580, "nowhere": 10581, "birdcage.": 10582, "room!": 10583, "cards.": 10584, "traffic": 10585, "try!\"": 10586, "suppl": 10587, "r's": 10588, "lier.": 10589, "coffee.": 10590, "anes": 10591, "Chicky": 10592, "ounded": 10593, "\"Would": 10594, "umber.": 10595, "tickle": 10596, "tight,": 10597, "raining": 10598, "shield.": 10599, "signs": 10600, "ceiling": 10601, "acorns": 10602, "Brown.": 10603, "parrot.": 10604, "revealed": 10605, "tooth.": 10606, "ling,": 10607, "gon,": 10608, "faucet.": 10609, "rol": 10610, "food?\"": 10611, "success": 10612, "idea!\"": 10613, "colour": 10614, "recorded": 10615, "careful,\"": 10616, "tricked": 10617, "ha,": 10618, "viol": 10619, "berry,": 10620, "leash.": 10621, "hter": 10622, "Let\u2019s": 10623, "balloon,": 10624, "ghtn": 10625, "crash": 10626, "thei": 10627, "underground": 10628, "thankful.": 10629, "mixing": 10630, "tuna.": 10631, "clear.": 10632, "eping,": 10633, "ity,": 10634, "raind": 10635, "needle.": 10636, "pebble.": 10637, "beat": 10638, "succeed.": 10639, "stickers.": 10640, "turn,": 10641, "choice": 10642, "cker.": 10643, "cing,": 10644, "Dino": 10645, "pe!\"": 10646, "counter.": 10647, "muffin.": 10648, "trains.": 10649, "nect": 10650, "post.": 10651, "ening.": 10652, "gained": 10653, "Milly": 10654, "dry,": 10655, "eats": 10656, "house!": 10657, "collecting": 10658, "mop.": 10659, "sand,": 10660, "spell.": 10661, "\"Happy": 10662, "Wi": 10663, "park!\"": 10664, "loves.": 10665, "fireworks": 10666, "sire": 10667, "dit": 10668, "bathe.": 10669, "Moral": 10670, "scooped": 10671, "picture,": 10672, "hug,": 10673, "chewing": 10674, "onion.": 10675, "dust.": 10676, "wanting": 10677, "ghost.": 10678, "happil": 10679, "aper.": 10680, "mustache.": 10681, "shelter.": 10682, "frame.": 10683, "ran.": 10684, "rail.": 10685, "endab": 10686, "sunrise.": 10687, "train,": 10688, "Rabbit": 10689, "tone": 10690, "Steve": 10691, "popp": 10692, "theirs.": 10693, "tory,": 10694, "gold.": 10695, "cuddled": 10696, "sew": 10697, "arve": 10698, "ato.": 10699, "disappear.": 10700, "for,": 10701, "veled": 10702, "versa": 10703, "sneaked": 10704, "Sant": 10705, "nized": 10706, "iture.": 10707, "e..": 10708, "cake?\"": 10709, "phone,": 10710, "recognized": 10711, "shampoo.": 10712, "dull.": 10713, "furniture.": 10714, "laser.": 10715, "sleeping,": 10716, "David": 10717, "chain.": 10718, "available.": 10719, "energy": 10720, "ithe": 10721, "Lila's": 10722, "theater.": 10723, "shrink.": 10724, "m!\"": 10725, "there's": 10726, "\"Gr": 10727, "-h": 10728, "Rachel": 10729, "Fro": 10730, "lily": 10731, "ained,": 10732, "momet": 10733, "pedal": 10734, "Abigail": 10735, "wards": 10736, "shooting": 10737, "chance.": 10738, "junk.": 10739, "grandpa.": 10740, "matched": 10741, "grandma,": 10742, "instead.\"": 10743, "surprises": 10744, "greedy.": 10745, "game.\"": 10746, "success.": 10747, "-be": 10748, "disappointed,": 10749, "sleep.\"": 10750, "Ella.": 10751, "anger.": 10752, "\"Or": 10753, "happily,": 10754, "powder.": 10755, "Hor": 10756, "ets,": 10757, "cobweb.": 10758, "ze!": 10759, "cups.": 10760, "lh": 10761, "Whiskers,": 10762, "package.": 10763, "knelt": 10764, "diffe": 10765, "woman.": 10766, "Momm": 10767, "During": 10768, "cross.": 10769, "mer,": 10770, "mixer.": 10771, "strawberry.": 10772, "Sat": 10773, "ards.": 10774, "cooler.": 10775, "ased.": 10776, "ledge": 10777, "bunn": 10778, "skirt.": 10779, "going?\"": 10780, "Ray": 10781, "wl.": 10782, "home,\"": 10783, "Daisy's": 10784, "\\x9cJ": 10785, "ide-": 10786, "ight.\"": 10787, "juicy.": 10788, "what.": 10789, "magazine.": 10790, "zip.": 10791, "swimming,": 10792, "together,\"": 10793, "goodn": 10794, "moon,": 10795, "s;": 10796, "prunes": 10797, "passport.": 10798, "puddles.": 10799, "ashtray.": 10800, "decides": 10801, "thy.\"": 10802, "trying,": 10803, "wand,": 10804, "harbor": 10805, "lemons": 10806, "yawn.": 10807, "Mia!\"": 10808, "ddles": 10809, "fire,": 10810, "climb,": 10811, "breath.": 10812, "tool.": 10813, "sniff": 10814, "refrigerator.": 10815, "six": 10816, "row!\"": 10817, "vacation": 10818, "goose.": 10819, "beamed": 10820, "hat!\"": 10821, "names.": 10822, "ty.\"": 10823, "exercise": 10824, "poking": 10825, "ors,": 10826, "Because": 10827, "cord.": 10828, "ed?\"": 10829, "aff": 10830, "draws": 10831, "eping.": 10832, "food!\"": 10833, "tron": 10834, "ot.\"": 10835, "potato.": 10836, "asleep,": 10837, "peach.": 10838, "singing,": 10839, "approached": 10840, "ilk": 10841, "early.": 10842, "paints": 10843, "shrugg": 10844, "pef": 10845, "Ot": 10846, "anywhere": 10847, "k\"": 10848, "nna": 10849, "Stre": 10850, "later": 10851, "star,": 10852, "p?\"": 10853, "oats.": 10854, "boots.": 10855, "happiest": 10856, "th!\"": 10857, "that!": 10858, "acorn.": 10859, "reke": 10860, "friend,\"": 10861, "bean.": 10862, "tough.": 10863, "cabin.": 10864, "unit": 10865, "htma": 10866, "\"Yay,": 10867, "stoma": 10868, "hrist": 10869, "b.\"": 10870, "house!\"": 10871, "petals": 10872, "planned": 10873, "see,": 10874, "printer": 10875, "giggle": 10876, "fashion": 10877, "skipping": 10878, "mix.": 10879, "surprise!\"": 10880, "\"Have": 10881, "aning,": 10882, "changed.": 10883, "ourh": 10884, "rules": 10885, "gifts": 10886, "please,\"": 10887, "We'll": 10888, "quietly": 10889, "lumber.": 10890, "mice": 10891, "ak,": 10892, "Doc": 10893, "cleaning,": 10894, "holes.": 10895, "nded": 10896, "dy's": 10897, "valley.": 10898, "en's": 10899, "soccer": 10900, "um!": 10901, "sorry,\"": 10902, "Hope": 10903, "u\\xe2": 10904, "lion's": 10905, "ringing": 10906, "tastes": 10907, "\"Bob,": 10908, "writ": 10909, "began,": 10910, "cool,": 10911, "rubbing": 10912, "sleeping.": 10913, "rat.": 10914, "ke's": 10915, ",\\xe2\\x80": 10916, "\"ple": 10917, "study.": 10918, "ute,": 10919, "axe.": 10920, "license.": 10921, "shy,": 10922, "im,": 10923, "silly,": 10924, "pitch": 10925, "opera.": 10926, "warmth": 10927, "barn,": 10928, "fluffy.": 10929, "bigger,": 10930, "scra": 10931, "game!": 10932, "orange,": 10933, "bulb.": 10934, "sticky.": 10935, "independ": 10936, "skull.": 10937, "zipper.": 10938, "tomorrow!\"": 10939, "flame.": 10940, "at?": 10941, "sweat": 10942, "Vi": 10943, "alend": 10944, "film.": 10945, "g-": 10946, "winning": 10947, "line,": 10948, "icular": 10949, "sausage.": 10950, "renc": 10951, "stop!": 10952, "Lila,": 10953, "lesson:": 10954, "worse.": 10955, "spending": 10956, "berries,": 10957, "frogs.": 10958, "yummy,": 10959, "rabbits": 10960, "mem": 10961, "ahead.": 10962, "missing.": 10963, "er-": 10964, "speed.": 10965, "Ger": 10966, "mall.": 10967, "mitten.": 10968, "r:": 10969, "taxi.": 10970, "sive,": 10971, "razor.": 10972, "lions": 10973, "Yay": 10974, "I\u2019m": 10975, "bikes.": 10976, "Dr": 10977, "anw": 10978, "alar": 10979, "Sarah,": 10980, "closet,": 10981, "escaped": 10982, "eating.": 10983, "neighbor's": 10984, "bush,": 10985, "andi": 10986, "Like": 10987, "memories": 10988, "shouting": 10989, "gis": 10990, "ument": 10991, "ally?\"": 10992, "worms": 10993, "songs,": 10994, "back?\"": 10995, "squea": 10996, "broke!": 10997, "on\\xe2\\x80": 10998, "most.": 10999, "Don\\xe2\\x80": 11000, "carrots,": 11001, "ear,": 11002, "xed,": 11003, "cours": 11004, "ripped": 11005, "Zoe": 11006, "happy!\"": 11007, "loy": 11008, "important,": 11009, "glowed": 11010, "party!\"": 11011, "ande": 11012, "shower.": 11013, "crane.": 11014, "\u201cNo,": 11015, "reflec": 11016, "stealing": 11017, "this?": 11018, "struck": 11019, "we'": 11020, "refre": 11021, "three-year-old": 11022, "war.": 11023, "we'll": 11024, "worked!": 11025, "print.": 11026, "cable.": 11027, "barking.": 11028, "muscles": 11029, "thos": 11030, "ir!\"": 11031, "icto": 11032, "giggled.": 11033, "ayh": 11034, "coz": 11035, "news": 11036, "Lucy!\"": 11037, "sity.": 11038, "soldier.": 11039, "howe": 11040, "dresses": 11041, "journey,": 11042, "want?\"": 11043, "decorated": 11044, "uses": 11045, "scoot": 11046, "read,": 11047, "crashed": 11048, "answered.": 11049, "structure.": 11050, "edal": 11051, "sir.": 11052, "university.": 11053, "mbo": 11054, "geh": 11055, "mies": 11056, "cover.": 11057, "spots.": 11058, "longer.": 11059, "\u201cCan": 11060, "exit": 11061, "mirr": 11062, "\"hello": 11063, "lier": 11064, "peace.": 11065, "surrend": 11066, "whip.": 11067, "understanding": 11068, "universe.": 11069, "and-seek.": 11070, "Keep": 11071, "caring.": 11072, "ancing": 11073, "video.": 11074, "orts": 11075, "rs!": 11076, "magic!": 11077, "brushed": 11078, "valley": 11079, "ly,\"": 11080, "Beep": 11081, "\u201cI\u2019m": 11082, "Tommy,": 11083, "\"Mmm,": 11084, "\u201cO": 11085, "switch.": 11086, "aa": 11087, "utu": 11088, "Rocky": 11089, "beside": 11090, "bam": 11091, "boo.": 11092, "name,": 11093, "monster!": 11094, "missile.": 11095, "burn.": 11096, "missi": 11097, "admiring": 11098, "ra.": 11099, "ife,": 11100, "uniform.": 11101, "tallest": 11102, "seek!\"": 11103, "caterpillar.": 11104, "Bal": 11105, "closely.": 11106, "learned.": 11107, "It\u2019s": 11108, "spots": 11109, "urs.": 11110, "oil.": 11111, "horses": 11112, "ll.\"": 11113, "ie?\"": 11114, "hide,": 11115, "bug's": 11116, "breathe": 11117, "suf": 11118, "Slowly,": 11119, "Dot": 11120, "moved!": 11121, "ze!\"": 11122, "\"Lily": 11123, "raven.": 11124, "to.\"": 11125, "Joy": 11126, "classroom": 11127, "hours,": 11128, "ir!": 11129, "giz": 11130, "thief.": 11131, "earthquake": 11132, "waf": 11133, "ition": 11134, "content.": 11135, "cracked": 11136, "Buddy's": 11137, "enthusiastic.": 11138, "sharing.": 11139, "proper": 11140, "windows.": 11141, "flat": 11142, "rag.": 11143, "Suz": 11144, "best!\"": 11145, "Hal": 11146, "ping,": 11147, "comet.": 11148, "newspaper.": 11149, "sip": 11150, "ain,": 11151, "Sky": 11152, "ued,": 11153, "snug": 11154, "\"g": 11155, "ie.\"": 11156, "rock!": 11157, "pillows": 11158, "marriage": 11159, "Katie": 11160, "-m": 11161, "iers.": 11162, "ess!\"": 11163, "cold.\"": 11164, "o.\"": 11165, "move,": 11166, "staying": 11167, "ctant": 11168, "lizard.": 11169, "ause": 11170, "hear.": 11171, "hardly": 11172, "bench,": 11173, "officer": 11174, "jar,": 11175, "aining": 11176, "surrounded": 11177, "nice,\"": 11178, "talked,": 11179, "luggage.": 11180, "isten": 11181, "\"Yuck!\"": 11182, "glitt": 11183, "inky.": 11184, "penny.": 11185, "nd!": 11186, "we're": 11187, "here,\"": 11188, "riend": 11189, "trail.": 11190, "\"Ok,": 11191, "inside?\"": 11192, "hearts.": 11193, "lotion.": 11194, "man!": 11195, "resting,": 11196, "\"When": 11197, "letters.": 11198, "overjo": 11199, "water!\"": 11200, "dile.": 11201, "wine.": 11202, "monkeys,": 11203, "big!\"": 11204, "lyfish.": 11205, "jellyfish.": 11206, "fishing": 11207, "found!": 11208, "poem.": 11209, "crocodile.": 11210, "wonder.": 11211, "forth": 11212, "strugg": 11213, "measuring": 11214, "ranch": 11215, "ong!\"": 11216, "pear.": 11217, "zooming": 11218, "irpl": 11219, "Bree": 11220, "can!\"": 11221, "Cro": 11222, "rocked": 11223, "catches": 11224, "adventure!": 11225, "Molly's": 11226, "setting": 11227, "was!": 11228, "thing?\"": 11229, "staff.": 11230, "welcome!": 11231, "ig.": 11232, "whatever": 11233, "stamp.": 11234, "ts'": 11235, "go,\"": 11236, "aky": 11237, "dirty.\"": 11238, "\"Oop": 11239, "kins.": 11240, "bowl,": 11241, "writes": 11242, "\"Sally,": 11243, "cakes.": 11244, "bathrobe.": 11245, "toys?\"": 11246, "horse,": 11247, "OK.": 11248, "imagination": 11249, "ime.": 11250, "cats,": 11251, "bors": 11252, "terns": 11253, "universe": 11254, "Mommy!\"": 11255, "arli": 11256, "ching,": 11257, "breakfast": 11258, "place.\"": 11259, "Ale": 11260, "ss!\"": 11261, "lling": 11262, "Bob!\"": 11263, "winter.": 11264, "\"Yuck!": 11265, "ink,": 11266, "fes,": 11267, "swam,": 11268, "struggle": 11269, "chases": 11270, "ask.": 11271, "shaped": 11272, "al?": 11273, "phon": 11274, "hats,": 11275, "file.": 11276, "edly.": 11277, "puddle,": 11278, "fascin": 11279, "waffle.": 11280, "softly": 11281, "Pas": 11282, "removed": 11283, "true,": 11284, "patterns": 11285, "eag": 11286, "crawling": 11287, "\"There,": 11288, "sors,": 11289, "gaze": 11290, "heads": 11291, "started.": 11292, "backpack": 11293, "trip,": 11294, "soaked": 11295, "travel.": 11296, "it.\u201d": 11297, "\"please": 11298, "ticket.": 11299, "\"Welcome": 11300, "Water": 11301, "burning": 11302, "spike": 11303, "ame,": 11304, "Cra": 11305, "litt": 11306, "ulat": 11307, "daddy,": 11308, "Lizzy": 11309, "laughter.": 11310, "anced": 11311, "wizard": 11312, "orw": 11313, "dipped": 11314, "smiley": 11315, "treasure!\"": 11316, "tted": 11317, "ge?\"": 11318, "lo\"": 11319, "ote,": 11320, "times,": 11321, "tery.": 11322, "sound,": 11323, "news.": 11324, "son.": 11325, "Grandma's": 11326, "chickens": 11327, "excitedly.": 11328, "lie,": 11329, "Mol": 11330, "speak.": 11331, "nice!": 11332, "nts,": 11333, "aks.": 11334, "wiggle": 11335, "'W": 11336, "let\\xe2\\x80": 11337, "colored": 11338, "nightma": 11339, "bubble.": 11340, "spicy.": 11341, "begged": 11342, "r!\"": 11343, "audi": 11344, "pin.": 11345, "planes.": 11346, "'T": 11347, "l?\"": 11348, "\"Boo!\"": 11349, "Mel": 11350, "nesday": 11351, "peered": 11352, "money,": 11353, "appeared!": 11354, "-see": 11355, "contain": 11356, "wreck.": 11357, "ot?\"": 11358, "dove.": 11359, "now,\"": 11360, "fish's": 11361, "lightning.": 11362, "peanuts": 11363, "I\\xe2": 11364, "vacation.": 11365, "fetch": 11366, "loaded": 11367, "etie": 11368, "flew,": 11369, "iced.": 11370, "baker": 11371, "laugh,": 11372, "buzzing": 11373, "rect": 11374, "ty-": 11375, "mother,": 11376, "explained,": 11377, "gling.": 11378, "\"Bye": 11379, "arrived.": 11380, "pupil": 11381, "llas": 11382, "vering.": 11383, "sity": 11384, "minute": 11385, "credi": 11386, "cool!": 11387, "Sue.\"": 11388, "melting": 11389, "castles.": 11390, "parts.": 11391, "music,": 11392, "unusual.": 11393, "Kitty!": 11394, "\\x9cR": 11395, "things!\"": 11396, "tat": 11397, "unfor": 11398, "omy,": 11399, "rawber": 11400, "Daddy.": 11401, "parti": 11402, "uding": 11403, "high.\"": 11404, "ornament.": 11405, "did!": 11406, "sack,": 11407, "collection.": 11408, "reward.": 11409, "shoulder": 11410, "ert.": 11411, "hugging": 11412, "fuel.": 11413, "lines": 11414, "you.\u201d": 11415, "\"Ha": 11416, "fal": 11417, "ista": 11418, "sparkling": 11419, "holiday.": 11420, "knob.": 11421, "short.": 11422, "ats,": 11423, "threat": 11424, "turtle!": 11425, "ny!\"": 11426, "happens": 11427, "aunt.": 11428, "applaud": 11429, "veil.": 11430, "battery.": 11431, "step.": 11432, "Aun": 11433, "beetle.": 11434, "great!": 11435, "it!\u201d": 11436, "screamed,": 11437, "yoga.": 11438, "st,\"": 11439, "padd": 11440, "strawberries.": 11441, "mud,": 11442, "intri": 11443, "Max.\"": 11444, "Reme": 11445, "sound?\"": 11446, "black.": 11447, "neat.": 11448, "twig.": 11449, "eper": 11450, "spraying": 11451, "omb": 11452, "ie!": 11453, "fasc": 11454, "ctor": 11455, "sweetheart.": 11456, "spik": 11457, "dragged": 11458, "rj": 11459, "Jen.": 11460, "contro": 11461, "prepared": 11462, "kitty": 11463, "beef.": 11464, "quiz.": 11465, "shrugged.": 11466, "pill.": 11467, "landscape": 11468, "blouse.": 11469, "claws": 11470, "might.": 11471, "Being": 11472, "bottom,": 11473, "amou": 11474, "y.\\xe2": 11475, "eser": 11476, "fell,": 11477, "yoursel": 11478, "lost,": 11479, "matching": 11480, "Lind": 11481, "own!": 11482, "zon": 11483, "car's": 11484, "cell.": 11485, "neighbor,": 11486, "yummy.\"": 11487, "searched,": 11488, "chores.": 11489, "leak.": 11490, "apologized": 11491, "finished.": 11492, "petted": 11493, "teaches": 11494, "mad,": 11495, "lie's": 11496, "lime.": 11497, "page.": 11498, "harmless.": 11499, "Aunt": 11500, "urf": 11501, "welcom": 11502, "hadow": 11503, "persist": 11504, "alarm.": 11505, "quick.": 11506, "subway.": 11507, "wide,": 11508, "smalle": 11509, "la!\"": 11510, "acting": 11511, "pigeon.": 11512, "carefully,": 11513, "brave.\"": 11514, "actually": 11515, "bull.": 11516, "ts!": 11517, "mist.": 11518, "llar": 11519, "stare": 11520, "each.": 11521, "socks.": 11522, "Jerry,": 11523, "irs,": 11524, "jumping,": 11525, "ribbon.": 11526, "skeleton.": 11527, "alt": 11528, "astle.": 11529, "dig.": 11530, "ected": 11531, "dying": 11532, "lf.\"": 11533, "shovel.": 11534, "girls": 11535, "imagination.": 11536, "alk.": 11537, "promise,": 11538, "couch,": 11539, "assm": 11540, "crying,": 11541, "history.": 11542, "Put": 11543, "spinn": 11544, "He's": 11545, "cat?\"": 11546, "Hello": 11547, "let\u2019s": 11548, "of.": 11549, "Ral": 11550, "dering": 11551, "Joe's": 11552, "ore,": 11553, "building,": 11554, "pretends": 11555, "ppet": 11556, "juice,": 11557, "incredible.": 11558, "ayb": 11559, "shivering.": 11560, "disturbed": 11561, "whistling": 11562, "ony": 11563, "Finally": 11564, "bricks": 11565, "etter": 11566, "brighter.": 11567, "girl.\"": 11568, "hours.": 11569, "mouth,": 11570, "hanger.": 11571, "rest,": 11572, "seems": 11573, "problems": 11574, "boat!\"": 11575, "blems": 11576, "\"we": 11577, "Rain": 11578, "not,": 11579, "forted": 11580, "i'": 11581, "yh": 11582, "dos": 11583, "-go": 11584, "ever.\"": 11585, "paring": 11586, "nervous,": 11587, "opening": 11588, "scam": 11589, "wherever": 11590, "wrap.": 11591, "napkin.": 11592, "puzzles.": 11593, "wife.": 11594, "soldiers": 11595, "parents,": 11596, "polished": 11597, "week,": 11598, "drinks": 11599, "gloomy.": 11600, "sandcastle.": 11601, "?!\"": 11602, "disag": 11603, "Rose.": 11604, "youth": 11605, "stuck!": 11606, "ckil": 11607, "explained.": 11608, "lows.": 11609, "marsh": 11610, "-by": 11611, "funny!\"": 11612, "insist": 11613, "spade.": 11614, "motor.": 11615, "broom": 11616, "ball,\"": 11617, "Watch": 11618, "Sunday,": 11619, "comes.": 11620, "esm": 11621, "confused,": 11622, "smooth,": 11623, "lady,": 11624, "\"z": 11625, "ows,": 11626, "ce?": 11627, "comforted": 11628, "spoons": 11629, "can,\"": 11630, "kingdom": 11631, "rian": 11632, "ces,": 11633, "alive.": 11634, "blankets": 11635, "ught": 11636, "pony.": 11637, "mess,": 11638, "inj": 11639, "il!": 11640, "'r": 11641, "am?\"": 11642, "smallest": 11643, "fair,": 11644, "octopu": 11645, "Two": 11646, "hurt!\"": 11647, "tugged": 11648, "waffles": 11649, "determin": 11650, "know.\"": 11651, "okay?": 11652, "crash.": 11653, "\"Woof,": 11654, "arthe": 11655, "drives": 11656, "ients.": 11657, "ent!\"": 11658, "kneel": 11659, "gray.": 11660, "behaved": 11661, "gone!\"": 11662, "Nina": 11663, "realize": 11664, "warning": 11665, "wri": 11666, "stron": 11667, "wink": 11668, "tried.": 11669, "sidewalk.": 11670, "grey": 11671, "blew.": 11672, "worker": 11673, "mole.": 11674, "pass.": 11675, "strong!\"": 11676, "highest": 11677, "kids,\"": 11678, "ayd": 11679, "iful!": 11680, "-ch": 11681, "turkey.": 11682, "hopped,": 11683, "act.": 11684, "yell.": 11685, "rocking": 11686, "trips": 11687, "Fid": 11688, "ak.\"": 11689, "inder": 11690, "wondering": 11691, "vehicle.": 11692, "\"Okay!\"": 11693, "aster": 11694, "dishes.": 11695, "future.": 11696, "university": 11697, "slippery": 11698, "ry.\"": 11699, "course.": 11700, "f-": 11701, "marks": 11702, "die": 11703, "worked,": 11704, "breathe.": 11705, "yourself.\"": 11706, "children,": 11707, "Ava": 11708, "chairs.": 11709, "watched.": 11710, "igs": 11711, "opul": 11712, "pears": 11713, "more!\"": 11714, "breeze": 11715, "ze.\"": 11716, "along,": 11717, "'.\"": 11718, "folding": 11719, "abra": 11720, "-v": 11721, "freeze.": 11722, "Thomas": 11723, "broke,": 11724, "energy.": 11725, "married": 11726, "turtle,": 11727, "stone,": 11728, "Josh": 11729, "protected": 11730, "eah": 11731, "bushes": 11732, "Lau": 11733, "gift.\"": 11734, "Abb": 11735, "wind,": 11736, "gathering": 11737, "bed.\"": 11738, "shadows": 11739, "Afterwar": 11740, "-bo": 11741, "middle.": 11742, "rake.": 11743, "heart,": 11744, "sweetheart": 11745, "shrimp.": 11746, "ate!\"": 11747, "released": 11748, "blanket,": 11749, "earth.": 11750, "r.\"": 11751, "falling.": 11752, "voices": 11753, "she'd": 11754, "ch,\"": 11755, "something.\"": 11756, "rides": 11757, "calendar.": 11758, "Dare": 11759, "hugs.": 11760, "panic": 11761, "lecture": 11762, "ay\"": 11763, "join.": 11764, "monkeys.": 11765, "mended": 11766, "twist.": 11767, "ving.": 11768, "crept": 11769, "Wor": 11770, "entran": 11771, "itin": 11772, "Moo": 11773, "hin.": 11774, "Sam.\"": 11775, "ink!\"": 11776, "Velvet": 11777, "tor's": 11778, "wonders": 11779, "sure,": 11780, "cuts": 11781, "ience": 11782, "course!\"": 11783, "creativ": 11784, "oyster.": 11785, "al?\"": 11786, "inue": 11787, "continue": 11788, "Hu": 11789, "patient,": 11790, "all.\"": 11791, "feelings": 11792, "mouth!": 11793, "snowball": 11794, "eded.": 11795, "gotten": 11796, "prettiest": 11797, "zzy.": 11798, "Fli": 11799, "-ups": 11800, "bone,": 11801, "Op": 11802, "\"Whis": 11803, "ideas": 11804, "bols": 11805, "wes": 11806, "snack,": 11807, "sill": 11808, "gear.": 11809, "sigh.": 11810, "fall.\"": 11811, "hard.\"": 11812, "great!\"": 11813, "reem": 11814, "loving": 11815, "eral.": 11816, "barks.": 11817, "pets": 11818, "slice": 11819, "Pippa": 11820, "ds!\"": 11821, "swim,": 11822, "Daisy,": 11823, "re\"": 11824, "lp!\"": 11825, "Max?\"": 11826, "weather.": 11827, "nail.": 11828, "office,": 11829, "afternoon,": 11830, "slide!\"": 11831, "dependable.": 11832, "breaks.": 11833, "dangerous,": 11834, "sleepy,": 11835, "completed": 11836, "traffic.": 11837, "amas": 11838, "ued.": 11839, "ishm": 11840, "class,": 11841, "sneaky": 11842, "conne": 11843, "popular.": 11844, "learns": 11845, "cooking.": 11846, "yawn": 11847, "weird.": 11848, "dev": 11849, "reads": 11850, "Friends": 11851, "city,": 11852, "blu": 11853, "sticking": 11854, "tummy.": 11855, ".\u201d": 11856, "uggles": 11857, "message.": 11858, "Leave": 11859, "bit,": 11860, "difference.": 11861, "Sue?\"": 11862, "Polly.": 11863, "kin,": 11864, "\"please\"": 11865, "ge?": 11866, "oo!": 11867, "Bouncy": 11868, "indy": 11869, "ily's": 11870, "kid.": 11871, "ear!": 11872, "pajam": 11873, "sparkly.": 11874, "cartoons": 11875, "sul": 11876, "some,": 11877, "creature.": 11878, "mean?\"": 11879, "dolphin.": 11880, "ating.": 11881, "iron.": 11882, "\"Help!\"": 11883, "ulp": 11884, "exclaimed.": 11885, "used.": 11886, "ideas.": 11887, "toe.": 11888, "well.\"": 11889, "mineral.": 11890, "anding.": 11891, "thermometer.": 11892, "lak": 11893, "yet,": 11894, "play!": 11895, "hissed": 11896, "toy,\"": 11897, "stair.": 11898, "erful.": 11899, "sticker.": 11900, "seats": 11901, "powerful.": 11902, "Ame": 11903, "tions.": 11904, "firefight": 11905, "brar": 11906, "easy,": 11907, "matches.": 11908, "yucky.": 11909, "id!": 11910, "angel.": 11911, "ion!": 11912, "hitting": 11913, "ing:": 11914, "nightmare.": 11915, "raining.": 11916, "ss!": 11917, "Tri": 11918, "style.": 11919, "ap,": 11920, "forget.": 11921, "polishing": 11922, "sely": 11923, "flood.": 11924, "Beth": 11925, "nurse.": 11926, "everyon": 11927, "Lee.": 11928, "pping,": 11929, "okay.\"": 11930, "wiggled": 11931, "playing.\"": 11932, "cy!": 11933, "mommy's": 11934, "okay,\"": 11935, "pouring": 11936, "make.": 11937, "stairs,": 11938, "barber.": 11939, "esday": 11940, "men.": 11941, "rabbit's": 11942, "le-": 11943, "legs,": 11944, "copy": 11945, "monkey,": 11946, "claps": 11947, "ving,": 11948, "passi": 11949, "home!": 11950, "gloves": 11951, "olives": 11952, "treat,": 11953, "Stitch": 11954, "st?\"": 11955, "small.\"": 11956, "cer.": 11957, "leopard.": 11958, "gle.": 11959, "Bin": 11960, "harder,": 11961, "cookie,": 11962, "way!": 11963, "\u201cThis": 11964, "grown-ups": 11965, "obser": 11966, "stamps": 11967, "\"Dadd": 11968, "traveled": 11969, "Joe,": 11970, "Sally!": 11971, "rope,": 11972, "fence,": 11973, "lot,": 11974, "Emma's": 11975, "villagers": 11976, "Wednesday": 11977, "sty.": 11978, "tower!\"": 11979, "childre": 11980, "muddy": 11981, "struggled": 11982, "tremble": 11983, "stranger.": 11984, "disagree": 11985, "l,\"": 11986, "explore,": 11987, "Tun": 11988, "law.": 11989, "sky.\"": 11990, "chirped": 11991, "age.\"": 11992, "right!": 11993, "friends'": 11994, "xha": 11995, "tracks": 11996, "bours": 11997, "teased": 11998, "andch": 11999, "called.": 12000, "horses.": 12001, "ink!": 12002, "third": 12003, "bridges": 12004, "bos": 12005, "happen,": 12006, "uncle.": 12007, "vehic": 12008, "things!": 12009, "safe!\"": 12010, "perched": 12011, "anymore!": 12012, "Gogo": 12013, "keeper.": 12014, "fed.": 12015, "hills": 12016, "colours": 12017, "ll!": 12018, "itself!": 12019, "oud,": 12020, "chuck": 12021, "blow.": 12022, "bbl": 12023, "quit.": 12024, "\"Ben": 12025, "meeting.": 12026, "whin": 12027, "Jenny.": 12028, "Sim": 12029, "on,\"": 12030, "gel": 12031, "whose": 12032, "there,\"": 12033, "\"Silly": 12034, "anu": 12035, "cup,": 12036, "crying?\"": 12037, "\"Daddy,": 12038, "bby,": 12039, "possible.": 12040, "Isa": 12041, "photo.": 12042, "hop.": 12043, "ecting": 12044, "nap.\"": 12045, "puzzles": 12046, "Av": 12047, "event.": 12048, "herbs": 12049, "blew,": 12050, "\u201cWhy": 12051, "achieve": 12052, "favorite.": 12053, "Dis": 12054, "scrubbed": 12055, "stole": 12056, "e.\\xe2\\x80": 12057, "paint,": 12058, "pies": 12059, "crazy.": 12060, "onwards,": 12061, "dee": 12062, "bows": 12063, "weak,": 12064, "country.": 12065, "swimming.": 12066, "hockey.": 12067, "mine,": 12068, "elephants,": 12069, "chess.": 12070, "studying": 12071, "teaspoon.": 12072, "atoes": 12073, "rup": 12074, "cus.": 12075, "zoom,": 12076, "hat!": 12077, "punished": 12078, "tear.": 12079, "\"Watch": 12080, "hest.": 12081, "bear!\"": 12082, "pot,": 12083, "them,\"": 12084, "drawing,": 12085, "ults": 12086, "know!": 12087, "Betty.": 12088, "Chirpy,": 12089, "weapon.": 12090, "sandwiches.": 12091, "knight.": 12092, "island,": 12093, "protecting": 12094, "ve,\"": 12095, "rhinocero": 12096, "struggle.": 12097, "peanut.": 12098, "muf": 12099, "kingd": 12100, "ago.": 12101, "flower!": 12102, "ivit": 12103, "firemen": 12104, "Sam?\"": 12105, "ap.": 12106, "visiting": 12107, "counting,": 12108, "dancer.": 12109, "someday.": 12110, "lost.\"": 12111, "twigs": 12112, "upstairs.": 12113, "patch.": 12114, "shaking.": 12115, "\"Stop!\"": 12116, "down!": 12117, "nicer": 12118, "fted": 12119, "soaring": 12120, "pitch.": 12121, "Ce": 12122, "oys,": 12123, "everywhere!": 12124, "alone!\"": 12125, "muddy.": 12126, "afraid,": 12127, "bis": 12128, "plane,": 12129, "cricket.": 12130, "arly": 12131, "dog,\"": 12132, "helping.": 12133, "ard!": 12134, "waist": 12135, "precious": 12136, "break.\"": 12137, "her?\"": 12138, "dy!": 12139, "sick.\"": 12140, "pops": 12141, "master": 12142, "obey": 12143, "pray.": 12144, "embarrass": 12145, "examined": 12146, "n\"": 12147, "equipment.": 12148, "eather": 12149, "bunny's": 12150, "nest.\"": 12151, "five,": 12152, "grinned": 12153, "ll?\"": 12154, "sky!\"": 12155, "mother's": 12156, "faced": 12157, "Jamie": 12158, "pus.": 12159, "beep.": 12160, "backyard,": 12161, "ging.": 12162, "seesaw.": 12163, "parked": 12164, "skul": 12165, "real,": 12166, "brand": 12167, "scared!": 12168, "order.": 12169, "Ber": 12170, "zebr": 12171, "thirsty,": 12172, "surf.": 12173, "united": 12174, "Luckily,": 12175, "compassionate.": 12176, "ghtl": 12177, "reminder": 12178, "ing\"": 12179, "eagle": 12180, "an's": 12181, "staring": 12182, "ia.": 12183, "ecti": 12184, "riag": 12185, "whistl": 12186, "Grandma,": 12187, "epp": 12188, "can\\xe2\\x80": 12189, "dancing,": 12190, "eat!\"": 12191, "rule": 12192, "permission": 12193, "smart,": 12194, "vell": 12195, "menu.": 12196, "kids!": 12197, "illy,": 12198, "root.": 12199, "Green": 12200, "\u201cDon\u2019t": 12201, "rels,": 12202, "hurry.": 12203, "Julie": 12204, "wonderful.": 12205, "Bop": 12206, "pots": 12207, "oh,\"": 12208, "antha": 12209, "smok": 12210, "Sna": 12211, "hiding,": 12212, "bricks.": 12213, "reng": 12214, "quak": 12215, "organizing": 12216, "angr": 12217, "air!": 12218, "score.": 12219, "pies.": 12220, "-and-": 12221, "\"List": 12222, "Welcome": 12223, "bad!\"": 12224, "alien": 12225, "ed\"": 12226, "rock.\"": 12227, "genc": 12228, "enthus": 12229, "jogging": 12230, "kes,": 12231, "promise.\"": 12232, "Ty": 12233, "Sam,\"": 12234, "reaching": 12235, "peaches": 12236, "naps": 12237, "first,\"": 12238, "will.": 12239, "mountain,": 12240, "ff,": 12241, "ie,\"": 12242, "golf.": 12243, "dod": 12244, "Spring": 12245, "wasted": 12246, "m:": 12247, "boy!": 12248, "shelf,": 12249, "warning.": 12250, "fake.": 12251, "llo,\"": 12252, "\\x99d": 12253, "again,\"": 12254, "beautiful!": 12255, "brightly.": 12256, "sang.": 12257, "alligator.": 12258, "valu": 12259, "hills.": 12260, "Jake.": 12261, "Not": 12262, "laz": 12263, "dies": 12264, "fall,": 12265, "spot,": 12266, "\"Yay!": 12267, "u,": 12268, "gas.": 12269, "\"Hello,\"": 12270, "skills": 12271, "balloon!": 12272, "style": 12273, "Robby": 12274, "experience": 12275, "ands.": 12276, "tti,": 12277, "Paw": 12278, "knew.": 12279, "organiz": 12280, "sisters": 12281, "water!": 12282, "value.": 12283, "super": 12284, "wild.": 12285, "quack": 12286, "pect.": 12287, "balancing": 12288, "\"May": 12289, "forever,": 12290, "ut,": 12291, "t's": 12292, "sci": 12293, "Fish": 12294, "ighbor": 12295, "Olly": 12296, "spoon,": 12297, "ship,": 12298, "nack": 12299, "cheer.": 12300, "prunes.": 12301, "Jim.": 12302, "can\u2019t": 12303, "ws,": 12304, "truck!\"": 12305, "igu": 12306, "rence": 12307, "Lisa's": 12308, "Come,": 12309, "Get": 12310, "eving": 12311, "compan": 12312, "buckle.": 12313, "\"Really?": 12314, "bling": 12315, "closely": 12316, "ich": 12317, "Our": 12318, "evening": 12319, "ducks,": 12320, "\"Woof!": 12321, "forman": 12322, "zz.": 12323, "patted": 12324, "Billy's": 12325, "skipp": 12326, "bones": 12327, "ale": 12328, "cryst": 12329, "answer,": 12330, "snake!": 12331, "plates.": 12332, "ote.": 12333, "fish.\"": 12334, "pause": 12335, "peat": 12336, "ito.": 12337, "\"Surprise!\"": 12338, "police.": 12339, "ex,": 12340, "ops": 12341, "five.": 12342, "ims": 12343, "lied": 12344, "upid": 12345, "scary.\"": 12346, "succeeded": 12347, "o's": 12348, "tries,": 12349, "felt.": 12350, "verse,": 12351, "Adam": 12352, "rainbow,": 12353, "one,\"": 12354, "circle,": 12355, "Mart": 12356, "Eli": 12357, "squirrels,": 12358, "inkl": 12359, "strength.": 12360, "dads": 12361, "pearl": 12362, "relaxed": 12363, "Mommy!": 12364, "sparkle": 12365, "ring,": 12366, "wood,": 12367, "cuddle": 12368, "Edd": 12369, "ines.": 12370, "lil": 12371, "zer,": 12372, "tree,\"": 12373, "I've": 12374, "gloves.": 12375, "trembling": 12376, "more?\"": 12377, "or!\"": 12378, "\"Bad": 12379, "mosquito.": 12380, "thoughtful.": 12381, "pictures,": 12382, "screw.": 12383, "shirt,": 12384, "punished.": 12385, "frosting": 12386, "octopus.": 12387, "issa": 12388, "Princess": 12389, "some!\"": 12390, "g:": 12391, "west": 12392, "langua": 12393, "ves!": 12394, "True.": 12395, "w-": 12396, "fied": 12397, "snowballs": 12398, "iter": 12399, "Clo": 12400, "de!": 12401, "ous,\"": 12402, "costumes": 12403, "urry": 12404, "friendly,": 12405, "glow!": 12406, "ir.\"": 12407, "vet.": 12408, "magical.": 12409, "playful.": 12410, "afternoon": 12411, "phe": 12412, "sav": 12413, "urt,": 12414, "enes": 12415, "zookeeper": 12416, "Fin's": 12417, "jewels": 12418, "b?": 12419, "Days": 12420, "Abby": 12421, "insisted,": 12422, "chall": 12423, "filling": 12424, "todd": 12425, "bunch": 12426, "animals.\"": 12427, "weren't": 12428, "cloud,": 12429, "work.\"": 12430, "Ah": 12431, "whistle,": 12432, "\\x80\\x98": 12433, "gised": 12434, "\"Just": 12435, "sandwich,": 12436, "beneath": 12437, "Only": 12438, "ie!\"": 12439, "proudly.": 12440, "insect.": 12441, "treasures": 12442, "treasures.": 12443, "dance!": 12444, "driver,": 12445, "iment": 12446, "ists": 12447, "kite,": 12448, "rrr,": 12449, "rubs": 12450, "uctions": 12451, "loa": 12452, "rolls": 12453, "landscape.": 12454, "inter": 12455, "lung": 12456, "sandwiches,": 12457, "reverse.": 12458, "passing": 12459, "ishment": 12460, "\"o": 12461, "Anne": 12462, "bors.": 12463, "chie": 12464, "sweetie,": 12465, "ectly": 12466, "still,": 12467, "Vr": 12468, "aner": 12469, "did!\"": 12470, "cles,": 12471, "refused.": 12472, "ister": 12473, "struggling": 12474, "boat!": 12475, "Zero": 12476, "object.": 12477, "\"Stay": 12478, "chy.": 12479, "hers": 12480, "wob": 12481, "weighed": 12482, "-fi": 12483, "tomatoes": 12484, "apologize": 12485, "Sammy.": 12486, "muffins": 12487, "b's": 12488, "playtime": 12489, "cartoon.": 12490, "becoming": 12491, "s\\xe2": 12492, "victory.": 12493, "superhero.": 12494, "pick.": 12495, "streng": 12496, "Fre": 12497, "uly": 12498, "it?\u201d": 12499, "strangers.": 12500, "fort,": 12501, "ciat": 12502, "apologi": 12503, "otst": 12504, "omen": 12505, "seats.": 12506, "king!": 12507, "rare,": 12508, "peck": 12509, "web.": 12510, "gift,": 12511, "Mama.": 12512, "bee,": 12513, "closes": 12514, "leader": 12515, "ruler": 12516, "-co": 12517, "shine,": 12518, "Lulu.": 12519, "Oo": 12520, "ow?": 12521, "starf": 12522, "joy,": 12523, "retur": 12524, "yucky": 12525, "yes!": 12526, "backpack.": 12527, "oid": 12528, "safer": 12529, "see,\"": 12530, "lever": 12531, "peanuts.": 12532, "Ben.\"": 12533, "exactly": 12534, "push.": 12535, "pulled.": 12536, "crab,": 12537, "Blu": 12538, "g!\"": 12539, "doctor's": 12540, "perform.": 12541, "unpa": 12542, "ladybug": 12543, "job!": 12544, "observed": 12545, "uid": 12546, "acto": 12547, "carry.": 12548, "herb.": 12549, "truly": 12550, "Frogg": 12551, "Squeak": 12552, "massage.": 12553, "r\\xe2": 12554, "hearts": 12555, "myself.\"": 12556, "sled": 12557, "Near": 12558, "Bea": 12559, "bled,": 12560, "fully,": 12561, "dy!\"": 12562, "ork.": 12563, "castle!\"": 12564, "snow,": 12565, "outside!\"": 12566, "mouths.": 12567, "tongue": 12568, "ts.\"": 12569, "boy.\"": 12570, "beans.": 12571, "skills.": 12572, "sobb": 12573, "nosy.": 12574, "ering.": 12575, "arac": 12576, "ill,": 12577, "\"Flu": 12578, "answers.": 12579, "Poppy.": 12580, "rops": 12581, "argued": 12582, "Ki": 12583, "badly": 12584, "anna": 12585, "ading": 12586, "dos.": 12587, "cute,": 12588, "tomorrow,": 12589, "bushes,": 12590, "le'": 12591, "cream!\"": 12592, "3-year-old": 12593, "\"Ouch!": 12594, "tern.": 12595, "Emily.": 12596, "bandage.": 12597, "bunnies": 12598, "disagree.": 12599, "Spot?\"": 12600, "destro": 12601, "there?": 12602, "weeping": 12603, "mouths": 12604, "brick.": 12605, "\"Surprise!": 12606, "uctions.": 12607, "tongue.": 12608, "Lena": 12609, "unhappy": 12610, "Billy,": 12611, "wisdom.": 12612, "esday,": 12613, "vels": 12614, "motion": 12615, "die.": 12616, "sted,": 12617, "sit.": 12618, "moments": 12619, "pattern.": 12620, "suffer.": 12621, "Want": 12622, "Blink": 12623, "winning.": 12624, "Birdy.": 12625, "party.\"": 12626, "wish,": 12627, "mbarr": 12628, "utes.": 12629, "mittens": 12630, "won!": 12631, "walls,": 12632, "one's": 12633, "Mira": 12634, "id,\"": 12635, "lds.": 12636, "Tuesday,": 12637, "waist.": 12638, "Chloe": 12639, "chirp": 12640, "ian,": 12641, "clouds,": 12642, "it\".": 12643, "free,": 12644, "counting.": 12645, "spirit.": 12646, "le\"": 12647, "book?\"": 12648, "ied:": 12649, "sie,": 12650, "uess": 12651, "shore,": 12652, "imsu": 12653, "babi": 12654, "shell,": 12655, "onte": 12656, "friends,\"": 12657, "hich": 12658, "leaning": 12659, "frown.": 12660, "snap.": 12661, "\"Achoo!\"": 12662, "Event": 12663, "ray,": 12664, "mystery.": 12665, "Ph": 12666, "cky,": 12667, "catch,": 12668, "bottle,": 12669, "roots": 12670, "remembering": 12671, "potatoes": 12672, "frozen": 12673, "luct": 12674, "icky": 12675, "catch!\"": 12676, "stretching": 12677, "Dais": 12678, "heat.": 12679, "replied:": 12680, "ges,": 12681, "iness": 12682, "lonel": 12683, "marbles.": 12684, "dea": 12685, "beds.": 12686, "money.\"": 12687, "original.": 12688, "all!\"": 12689, "ently.": 12690, "goodnight": 12691, "sheep,": 12692, "faraway": 12693, "snowman's": 12694, "Luna,": 12695, "X-": 12696, "ves.\"": 12697, "k,\"": 12698, "nood": 12699, "some.\"": 12700, "Buzz.": 12701, "\"Come,": 12702, "yours!\"": 12703, "ign.": 12704, "shm": 12705, "stays": 12706, "want,": 12707, "itati": 12708, "ezed.": 12709, "snake,": 12710, "screams.": 12711, "ny-": 12712, "hurts.": 12713, "aul": 12714, "mouse!": 12715, "stant": 12716, "inari": 12717, "Mimi's": 12718, "everyone.\"": 12719, "lips.": 12720, "ther?": 12721, "Hippy": 12722, "\"Sara": 12723, "lemons.": 12724, "agreement.": 12725, "swooped": 12726, "lse": 12727, "cub": 12728, "y!\u201d": 12729, "water?\"": 12730, "elephant,": 12731, "gorilla.": 12732, "ht,": 12733, "pool,": 12734, "Curi": 12735, "down!\"": 12736, "'I": 12737, "Zar": 12738, "imy.": 12739, "are.\"": 12740, "cheek": 12741, "usually": 12742, "rained.": 12743, "liqu": 12744, "bell,": 12745, "Sunny.": 12746, "popped!": 12747, "bears.": 12748, "hood,": 12749, "\"Fluffy,": 12750, "judge.": 12751, "a\"": 12752, "Sorry,": 12753, "ms,": 12754, "oney": 12755, "ays.": 12756, "room!\"": 12757, "\"Meow,": 12758, "chores": 12759, "Mir": 12760, "swa": 12761, "ides,": 12762, "irst,": 12763, "Eventually": 12764, "sighs.": 12765, "monster,": 12766, "onm": 12767, "food!": 12768, "lady's": 12769, "waste.": 12770, "stern": 12771, "Claire": 12772, "design.": 12773, "Que": 12774, "ce.\"": 12775, "magazin": 12776, "yelling": 12777, "happen.\"": 12778, "trouble.\"": 12779, "\"Bird,": 12780, "eared!": 12781, "Catty": 12782, "her!\"": 12783, "fully.": 12784, "arrass.": 12785, "embarrass.": 12786, "disappeared!": 12787, "Mix": 12788, "daughter,": 12789, "Res": 12790, "bubb": 12791, "safari.": 12792, "roved": 12793, "anymore!\"": 12794, "Wisdom": 12795, "so.": 12796, "player.": 12797, "season": 12798, "underground.": 12799, "hippo.": 12800, "adding": 12801, "lunch.\"": 12802, "borhoo": 12803, "sneezed.": 12804, "poison.": 12805, "veterinarian.": 12806, "away,\"": 12807, "pet,": 12808, "swinging,": 12809, "storm,": 12810, "um!\"": 12811, "colors!": 12812, "vir": 12813, "from?\"": 12814, "another,": 12815, "napping,": 12816, "investigate.": 12817, "xh": 12818, "ids,": 12819, "h-o": 12820, "rich,": 12821, "firework.": 12822, "sport.": 12823, "ps,": 12824, "metal.": 12825, "caused": 12826, "ution.": 12827, "Jill,": 12828, "repeated": 12829, "nightmare": 12830, "Care": 12831, "coming!\"": 12832, "push,": 12833, "ingl": 12834, "Bro": 12835, "il.\"": 12836, "park!": 12837, "better!": 12838, "\"hello\"": 12839, "back,\"": 12840, "drum,": 12841, "hospital,": 12842, "doll!\"": 12843, "flower!\"": 12844, "mess!\"": 12845, "whim": 12846, "sandbox": 12847, "ive,": 12848, "treats,": 12849, "nesday,": 12850, "oranges": 12851, "blows": 12852, "cheap.": 12853, "resist.": 12854, "tornado.": 12855, "surprise.\"": 12856, "hot.\"": 12857, "luck.": 12858, "impressed.": 12859, "gifts.": 12860, "belonged.": 12861, "ate!": 12862, "Mean": 12863, "Other": 12864, "od,": 12865, "sar": 12866, "blood.": 12867, "disagreed": 12868, "party!": 12869, "west.": 12870, "oranges.": 12871, "worms.": 12872, "troph": 12873, "merry-": 12874, "mistakes": 12875, "Wednesday,": 12876, "or?\"": 12877, "zebra.": 12878, "wise,": 12879, "married.": 12880, "li!": 12881, "bleeding.": 12882, "bank": 12883, "pink,": 12884, "paw,": 12885, "Pean": 12886, "circles,": 12887, "reluctantly": 12888, "pocket,": 12889, "Ally": 12890, "llie,": 12891, "mistak": 12892, "lonely,": 12893, "Sle": 12894, "Tam": 12895, "hunter.": 12896, "et-": 12897, "orab": 12898, "bridge,": 12899, "rs!\"": 12900, "oodn": 12901, "dark.\"": 12902, "\u201cM": 12903, "buckets": 12904, "nails": 12905, "welcome!\"": 12906, "arms,": 12907, "piles": 12908, "\"Welcome,": 12909, "bones.": 12910, "shapes,": 12911, "chees": 12912, "nas": 12913, "frog's": 12914, "guard.": 12915, "tickets": 12916, "reindeer.": 12917, "return.": 12918, "iev": 12919, "unknow": 12920, "decorations": 12921, "sadly.": 12922, "lot.\"": 12923, "hat.\"": 12924, "excite": 12925, "Mommy?\"": 12926, "airport,": 12927, "coon": 12928, "will,": 12929, "apron.": 12930, "listens": 12931, "Birdie": 12932, "thrilled": 12933, "thumb.": 12934, "roads": 12935, "breath,": 12936, "neighbor.": 12937, "stl": 12938, "Blo": 12939, "bow!": 12940, "candles.": 12941, "Tina.": 12942, "carrot,": 12943, "orre": 12944, "tag,": 12945, "pears.": 12946, "aining.": 12947, "pirate.": 12948, "Jeff": 12949, "Fla": 12950, "bunny!": 12951, "Tob": 12952, "fight,": 12953, "included": 12954, "iful!\"": 12955, "maid": 12956, "then.": 12957, "Stay": 12958, "\"Tommy,": 12959, "vered.": 12960, "towers.": 12961, "y;": 12962, "ic?\"": 12963, "flea.": 12964, "eros.": 12965, "loading": 12966, "rabbits.": 12967, "valued": 12968, "amazed!": 12969, "misses": 12970, "heroes.": 12971, "fields": 12972, "bathroom,": 12973, "puppy,": 12974, "lac": 12975, "bef": 12976, "tax": 12977, "you!\u201d": 12978, "I\u2019ll": 12979, "replaced": 12980, "Max,\"": 12981, "kindly": 12982, "heroes": 12983, "roaring": 12984, "lemonade.": 12985, "can!": 12986, "crunchy": 12987, "plu": 12988, "be!": 12989, "\"Mim": 12990, "victory": 12991, "fierce.": 12992, "Far": 12993, "purred": 12994, "sugge": 12995, "alit": 12996, "fixed,": 12997, "Kids": 12998, "s.\u201d": 12999, "frog!\"": 13000, "ners": 13001, "confli": 13002, "ouch": 13003, "ice.\"": 13004, "unique.": 13005, "ile,": 13006, "sorry!\"": 13007, "licen": 13008, "fair!\"": 13009, "worry,\"": 13010, "Peter.": 13011, "attention.": 13012, "lict": 13013, "der,": 13014, "\"Hey!": 13015, "shut.": 13016, "boom": 13017, "are!\"": 13018, "life,": 13019, "sibil": 13020, "aded": 13021, "book.\"": 13022, "love,": 13023, "magic,": 13024, "ect!": 13025, "\"Great": 13026, "Jilly": 13027, "opinion": 13028, "improved": 13029, "nder.": 13030, "untie": 13031, "conflict": 13032, "bes.": 13033, "m?\"": 13034, "fireman.": 13035, "tions": 13036, "done?\"": 13037, "scoop": 13038, "seen!": 13039, "ck,\"": 13040, "shared.": 13041, "wears": 13042, "doll.\"": 13043, "grocer": 13044, "dull,": 13045, "Jessica": 13046, "strum": 13047, "ness,": 13048, "marriage.": 13049, "\"Our": 13050, "passed,": 13051, "lips": 13052, "histl": 13053, "better,\"": 13054, "cheerful.": 13055, "counter": 13056, "s!\u201d": 13057, "rud": 13058, "shake!": 13059, "peri": 13060, "doctor,": 13061, "omes": 13062, "shopping": 13063, "hero,": 13064, "\"Hold": 13065, "shrink!": 13066, "rhinoceros.": 13067, "rhythm.": 13068, "crayons,": 13069, "presents": 13070, "eared,": 13071, "mule.": 13072, "dry.\"": 13073, "beautiful!\"": 13074, "done?": 13075, "aser": 13076, "search.": 13077, "newsp": 13078, "pper,": 13079, "pirates.": 13080, "pered.": 13081, "vowed": 13082, "\"Then": 13083, "funny-looking": 13084, "Enjoy": 13085, "king's": 13086, "Sadly,": 13087, "wound": 13088, "much!\"": 13089, "ables,": 13090, "Mark's": 13091, "heel.": 13092, "acorns.": 13093, "ed-": 13094, "shivered": 13095, "hill!\"": 13096, "satisfi": 13097, "spaceship": 13098, "alen": 13099, "day?\"": 13100, "rel!\"": 13101, "contest": 13102, "sting!": 13103, "cheap,": 13104, "l\\xe2": 13105, "apart": 13106, "memories.": 13107, "tion,": 13108, "trade.": 13109, "\"Okay,\"": 13110, "vegetables,": 13111, "vendor.": 13112, "station,": 13113, "begin": 13114, "lib": 13115, "bedroom,": 13116, "vities": 13117, "dug,": 13118, "ctri": 13119, "uab": 13120, "enger": 13121, "\"Ready": 13122, "much!": 13123, "waved.": 13124, "marry.": 13125, "sore": 13126, "cream.\"": 13127, "raced,": 13128, "above.": 13129, "weed": 13130, "reck": 13131, "waiting.": 13132, "net,": 13133, "artl": 13134, "vanished": 13135, "sofa,": 13136, "mean!\"": 13137, "rescued": 13138, "embarrassed,": 13139, "seal.": 13140, "tent,": 13141, "slept,": 13142, "\\x99l": 13143, "piggy": 13144, "er:": 13145, "moves.": 13146, "granted": 13147, "ieved": 13148, "stack.": 13149, "fb": 13150, "seem.": 13151, "fighting,": 13152, "result": 13153, "You'll": 13154, "world.\"": 13155, "kicks": 13156, "counted,": 13157, "texture": 13158, "Fluffy!": 13159, "vanished!": 13160, "onne": 13161, "g.\"": 13162, "asks,": 13163, "rel!": 13164, "behavi": 13165, "See,": 13166, "frightened,": 13167, "sun.\"": 13168, "guin.": 13169,
[...]
